{
  "version": "1.0",
  "truncation": null,
  "padding": null,
  "added_tokens": [
    {
      "id": 0,
      "content": "[UNK]",
      "single_word": false,
      "lstrip": false,
      "rstrip": false,
      "normalized": false,
      "special": true
    },
    {
      "id": 1,
      "content": "[PAD]",
      "single_word": false,
      "lstrip": false,
      "rstrip": false,
      "normalized": false,
      "special": true
    },
    {
      "id": 2,
      "content": "[CLS]",
      "single_word": false,
      "lstrip": false,
      "rstrip": false,
      "normalized": false,
      "special": true
    },
    {
      "id": 3,
      "content": "[SEP]",
      "single_word": false,
      "lstrip": false,
      "rstrip": false,
      "normalized": false,
      "special": true
    },
    {
      "id": 4,
      "content": "[MASK]",
      "single_word": false,
      "lstrip": false,
      "rstrip": false,
      "normalized": false,
      "special": true
    }
  ],
  "normalizer": {
    "type": "Sequence",
    "normalizers": [
      {
        "type": "NFD"
      },
      {
        "type": "Lowercase"
      },
      {
        "type": "StripAccents"
      }
    ]
  },
  "pre_tokenizer": {
    "type": "BertPreTokenizer"
  },
  "post_processor": {
    "type": "TemplateProcessing",
    "single": [
      {
        "SpecialToken": {
          "id": "[CLS]",
          "type_id": 0
        }
      },
      {
        "Sequence": {
          "id": "A",
          "type_id": 0
        }
      },
      {
        "SpecialToken": {
          "id": "[SEP]",
          "type_id": 0
        }
      }
    ],
    "pair": [
      {
        "SpecialToken": {
          "id": "[CLS]",
          "type_id": 0
        }
      },
      {
        "Sequence": {
          "id": "A",
          "type_id": 0
        }
      },
      {
        "SpecialToken": {
          "id": "[SEP]",
          "type_id": 0
        }
      },
      {
        "Sequence": {
          "id": "B",
          "type_id": 1
        }
      },
      {
        "SpecialToken": {
          "id": "[SEP]",
          "type_id": 1
        }
      }
    ],
    "special_tokens": {
      "[CLS]": {
        "id": "[CLS]",
        "ids": [
          2
        ],
        "tokens": [
          "[CLS]"
        ]
      },
      "[SEP]": {
        "id": "[SEP]",
        "ids": [
          3
        ],
        "tokens": [
          "[SEP]"
        ]
      }
    }
  },
  "decoder": {
    "type": "WordPiece",
    "prefix": "##",
    "cleanup": true
  },
  "model": {
    "type": "WordPiece",
    "unk_token": "[UNK]",
    "continuing_subword_prefix": "##",
    "max_input_chars_per_word": 100,
    "vocab": {
      "[UNK]": 0,
      "[PAD]": 1,
      "[CLS]": 2,
      "[SEP]": 3,
      "[MASK]": 4,
      "!": 5,
      "\"": 6,
      "#": 7,
      "$": 8,
      "%": 9,
      "&": 10,
      "'": 11,
      "(": 12,
      ")": 13,
      "*": 14,
      "+": 15,
      ",": 16,
      "-": 17,
      ".": 18,
      "/": 19,
      "0": 20,
      "1": 21,
      "2": 22,
      "3": 23,
      "4": 24,
      "5": 25,
      "6": 26,
      "7": 27,
      "8": 28,
      "9": 29,
      ":": 30,
      ";": 31,
      "<": 32,
      "=": 33,
      ">": 34,
      "?": 35,
      "@": 36,
      "[": 37,
      "]": 38,
      "_": 39,
      "a": 40,
      "b": 41,
      "c": 42,
      "d": 43,
      "e": 44,
      "f": 45,
      "g": 46,
      "h": 47,
      "i": 48,
      "j": 49,
      "k": 50,
      "l": 51,
      "m": 52,
      "n": 53,
      "o": 54,
      "p": 55,
      "q": 56,
      "r": 57,
      "s": 58,
      "t": 59,
      "u": 60,
      "v": 61,
      "w": 62,
      "x": 63,
      "y": 64,
      "z": 65,
      "{": 66,
      "}": 67,
      "©": 68,
      "®": 69,
      "°": 70,
      "µ": 71,
      "·": 72,
      "º": 73,
      "¼": 74,
      "½": 75,
      "–": 76,
      "’": 77,
      "“": 78,
      "”": 79,
      "…": 80,
      "##r": 81,
      "##i": 82,
      "##n": 83,
      "##t": 84,
      "##s": 85,
      "##e": 86,
      "##l": 87,
      "##g": 88,
      "##a": 89,
      "##m": 90,
      "##o": 91,
      "##u": 92,
      "##y": 93,
      "##v": 94,
      "##c": 95,
      "##p": 96,
      "##h": 97,
      "##d": 98,
      "##2": 99,
      "##k": 100,
      "##f": 101,
      "##8": 102,
      "##q": 103,
      "##1": 104,
      "##z": 105,
      "##b": 106,
      "##0": 107,
      "##5": 108,
      "##6": 109,
      "##j": 110,
      "##9": 111,
      "##3": 112,
      "##4": 113,
      "##7": 114,
      "##x": 115,
      "##w": 116,
      "##º": 117,
      "##©": 118,
      "##®": 119,
      "##°": 120,
      "##½": 121,
      "##he": 122,
      "##er": 123,
      "the": 124,
      "##ed": 125,
      "##at": 126,
      "##on": 127,
      "##in": 128,
      "##en": 129,
      "##al": 130,
      "##as": 131,
      "an": 132,
      "##re": 133,
      "##or": 134,
      "##is": 135,
      "##it": 136,
      "and": 137,
      "##ion": 138,
      "in": 139,
      "##ar": 140,
      "##es": 141,
      "was": 142,
      "##ent": 143,
      "##ic": 144,
      "##ro": 145,
      "of": 146,
      "to": 147,
      "##ing": 148,
      "##le": 149,
      "##an": 150,
      "##os": 151,
      "##ct": 152,
      "##ith": 153,
      "with": 154,
      "##om": 155,
      "re": 156,
      "##ou": 157,
      "th": 158,
      "##ll": 159,
      "##ter": 160,
      "##ati": 161,
      "##ve": 162,
      "##ly": 163,
      "no": 164,
      "##ac": 165,
      "##ig": 166,
      "##ation": 167,
      "he": 168,
      "##id": 169,
      "is": 170,
      "##ur": 171,
      "##ul": 172,
      "##ad": 173,
      "##atient": 174,
      "##us": 175,
      "patient": 176,
      "##ure": 177,
      "##op": 178,
      "##ut": 179,
      "st": 180,
      "##ra": 181,
      "##ow": 182,
      "##im": 183,
      "on": 184,
      "##ia": 185,
      "pro": 186,
      "##il": 187,
      "##ht": 188,
      "##st": 189,
      "ex": 190,
      "for": 191,
      "##ist": 192,
      "be": 193,
      "##ot": 194,
      "she": 195,
      "##ain": 196,
      "at": 197,
      "##pp": 198,
      "##ere": 199,
      "##ight": 200,
      "we": 201,
      "##nd": 202,
      "as": 203,
      "##em": 204,
      "le": 205,
      "con": 206,
      "##ol": 207,
      "##am": 208,
      "##res": 209,
      "##um": 210,
      "##orm": 211,
      "##ated": 212,
      "were": 213,
      "##ect": 214,
      "##ft": 215,
      "##ate": 216,
      "pl": 217,
      "de": 218,
      "ne": 219,
      "##ri": 220,
      "this": 221,
      "##ce": 222,
      "##ory": 223,
      "##ver": 224,
      "##ch": 225,
      "or": 226,
      "se": 227,
      "##od": 228,
      "dis": 229,
      "su": 230,
      "not": 231,
      "pos": 232,
      "then": 233,
      "##ble": 234,
      "##et": 235,
      "##est": 236,
      "##oc": 237,
      "right": 238,
      "her": 239,
      "##ical": 240,
      "##ine": 241,
      "left": 242,
      "##ir": 243,
      "##ay": 244,
      "##ess": 245,
      "per": 246,
      "ab": 247,
      "##ial": 248,
      "has": 249,
      "##ge": 250,
      "app": 251,
      "##ast": 252,
      "us": 253,
      "##el": 254,
      "##eral": 255,
      "that": 256,
      "##per": 257,
      "wh": 258,
      "##if": 259,
      "com": 260,
      "##ced": 261,
      "there": 262,
      "##ative": 263,
      "##th": 264,
      "##teri": 265,
      "hist": 266,
      "int": 267,
      "al": 268,
      "history": 269,
      "are": 270,
      "plac": 271,
      "##ress": 272,
      "ad": 273,
      "##ies": 274,
      "##ort": 275,
      "##pl": 276,
      "##ous": 277,
      "inc": 278,
      "##ormal": 279,
      "##rom": 280,
      "##ary": 281,
      "##un": 282,
      "##ear": 283,
      "sp": 284,
      "##ld": 285,
      "bl": 286,
      "##end": 287,
      "sh": 288,
      "ch": 289,
      "##one": 290,
      "##her": 291,
      "##cedure": 292,
      "had": 293,
      "med": 294,
      "##ill": 295,
      "##ak": 296,
      "procedure": 297,
      "##pt": 298,
      "##og": 299,
      "his": 300,
      "##hy": 301,
      "pre": 302,
      "##ular": 303,
      "cl": 304,
      "normal": 305,
      "##ug": 306,
      "##ment": 307,
      "dia": 308,
      "##ive": 309,
      "##ations": 310,
      "##able": 311,
      "##ood": 312,
      "##qu": 313,
      "##ant": 314,
      "##out": 315,
      "##ition": 316,
      "##se": 317,
      "##all": 318,
      "##iz": 319,
      "##art": 320,
      "placed": 321,
      "##ateral": 322,
      "ar": 323,
      "##osis": 324,
      "ca": 325,
      "##ved": 326,
      "sc": 327,
      "well": 328,
      "##ard": 329,
      "##mo": 330,
      "ha": 331,
      "##gn": 332,
      "##ction": 333,
      "all": 334,
      "##ult": 335,
      "##hes": 336,
      "from": 337,
      "fo": 338,
      "##ran": 339,
      "##ound": 340,
      "pain": 341,
      "sy": 342,
      "##form": 343,
      "it": 344,
      "##ip": 345,
      "ext": 346,
      "##ity": 347,
      "##iv": 348,
      "##terior": 349,
      "##ome": 350,
      "##ph": 351,
      "##ign": 352,
      "##inal": 353,
      "##vi": 354,
      "##erative": 355,
      "##ase": 356,
      "rec": 357,
      "##ich": 358,
      "##roug": 359,
      "af": 360,
      "diagn": 361,
      "im": 362,
      "ob": 363,
      "##ision": 364,
      "un": 365,
      "which": 366,
      "##00": 367,
      "res": 368,
      "##act": 369,
      "##xim": 370,
      "##operative": 371,
      "cont": 372,
      "##lu": 373,
      "##ry": 374,
      "ev": 375,
      "inf": 376,
      "##ection": 377,
      "tim": 378,
      "sub": 379,
      "any": 380,
      "##ied": 381,
      "##ue": 382,
      "by": 383,
      "sur": 384,
      "##ens": 385,
      "##ual": 386,
      "##ib": 387,
      "##ag": 388,
      "pres": 389,
      "##ications": 390,
      "##ness": 391,
      "exam": 392,
      "##omy": 393,
      "year": 394,
      "have": 395,
      "hem": 396,
      "##formed": 397,
      "##rem": 398,
      "cou": 399,
      "##ab": 400,
      "remo": 401,
      "##ru": 402,
      "##ass": 403,
      "sign": 404,
      "##ide": 405,
      "anest": 406,
      "##ost": 407,
      "##ther": 408,
      "comp": 409,
      "after": 410,
      "##ack": 411,
      "##ne": 412,
      "ac": 413,
      "##rap": 414,
      "##ub": 415,
      "hy": 416,
      "ro": 417,
      "##so": 418,
      "und": 419,
      "but": 420,
      "##iss": 421,
      "##ital": 422,
      "post": 423,
      "noted": 424,
      "also": 425,
      "inter": 426,
      "time": 427,
      "##and": 428,
      "##kin": 429,
      "##ade": 430,
      "##reat": 431,
      "appro": 432,
      "##ap": 433,
      "##ily": 434,
      "##ond": 435,
      "under": 436,
      "oper": 437,
      "##int": 438,
      "##cop": 439,
      "fas": 440,
      "tak": 441,
      "##tery": 442,
      "do": 443,
      "##ery": 444,
      "using": 445,
      "will": 446,
      "mg": 447,
      "##ric": 448,
      "cor": 449,
      "cons": 450,
      "##rough": 451,
      "blood": 452,
      "gen": 453,
      "through": 454,
      "##llow": 455,
      "en": 456,
      "dr": 457,
      "incision": 458,
      "surg": 459,
      "up": 460,
      "been": 461,
      "performed": 462,
      "dist": 463,
      "present": 464,
      "##ite": 465,
      "abd": 466,
      "follow": 467,
      "che": 468,
      "##hesia": 469,
      "into": 470,
      "disc": 471,
      "compl": 472,
      "skin": 473,
      "##der": 474,
      "##ating": 475,
      "##ert": 476,
      "bil": 477,
      "rep": 478,
      "without": 479,
      "end": 480,
      "##fic": 481,
      "anesthesia": 482,
      "##ding": 483,
      "##ained": 484,
      "##ire": 485,
      "abdom": 486,
      "##ron": 487,
      "10": 488,
      "##ck": 489,
      "some": 490,
      "over": 491,
      "car": 492,
      "whe": 493,
      "bilateral": 494,
      "ag": 495,
      "used": 496,
      "day": 497,
      "ret": 498,
      "clos": 499,
      "removed": 500,
      "low": 501,
      "room": 502,
      "old": 503,
      "##oint": 504,
      "tran": 505,
      "##own": 506,
      "##usc": 507,
      "ins": 508,
      "##ected": 509,
      "mo": 510,
      "##ence": 511,
      "sut": 512,
      "trans": 513,
      "out": 514,
      "##ks": 515,
      "fe": 516,
      "can": 517,
      "##ions": 518,
      "##age": 519,
      "##dition": 520,
      "##vel": 521,
      "general": 522,
      "##ific": 523,
      "##ps": 524,
      "##ately": 525,
      "need": 526,
      "anterior": 527,
      "##let": 528,
      "diagnosis": 529,
      "reg": 530,
      "##erg": 531,
      "so": 532,
      "cle": 533,
      "imp": 534,
      "##our": 535,
      "##ros": 536,
      "##ors": 537,
      "##ong": 538,
      "##ract": 539,
      "##ination": 540,
      "extrem": 541,
      "tw": 542,
      "##oscop": 543,
      "fl": 544,
      "##ould": 545,
      "position": 546,
      "suture": 547,
      "sec": 548,
      "mm": 549,
      "pul": 550,
      "artery": 551,
      "##ities": 552,
      "cat": 553,
      "##onary": 554,
      "ele": 555,
      "##ale": 556,
      "show": 557,
      "back": 558,
      "##rac": 559,
      "##urn": 560,
      "##erv": 561,
      "ind": 562,
      "##ild": 563,
      "obt": 564,
      "##olog": 565,
      "fem": 566,
      "##ral": 567,
      "##ys": 568,
      "##oth": 569,
      "mot": 570,
      "##lex": 571,
      "##ement": 572,
      "##ep": 573,
      "##itis": 574,
      "##ently": 575,
      "taken": 576,
      "##ie": 577,
      "##ardi": 578,
      "me": 579,
      "appear": 580,
      "##urr": 581,
      "mon": 582,
      "##cy": 583,
      "##ree": 584,
      "##use": 585,
      "##ull": 586,
      "dise": 587,
      "stat": 588,
      "lateral": 589,
      "dec": 590,
      "##uc": 591,
      "##ail": 592,
      "mar": 593,
      "past": 594,
      "##ryl": 595,
      "non": 596,
      "disease": 597,
      "##its": 598,
      "##ud": 599,
      "vis": 600,
      "musc": 601,
      "att": 602,
      "##hys": 603,
      "approxim": 604,
      "##fer": 605,
      "den": 606,
      "min": 607,
      "##vie": 608,
      "chest": 609,
      "am": 610,
      "##ior": 611,
      "diss": 612,
      "##oid": 613,
      "sym": 614,
      "examination": 615,
      "adm": 616,
      "mid": 617,
      "who": 618,
      "press": 619,
      "##ression": 620,
      "care": 621,
      "head": 622,
      "tiss": 623,
      "two": 624,
      "##ke": 625,
      "area": 626,
      "des": 627,
      "posterior": 628,
      "clear": 629,
      "##ob": 630,
      "lower": 631,
      "##ane": 632,
      "dif": 633,
      "##arge": 634,
      "##hion": 635,
      "fashion": 636,
      "pressure": 637,
      "##ell": 638,
      "##pir": 639,
      "one": 640,
      "other": 641,
      "##itt": 642,
      "inj": 643,
      "steri": 644,
      "##ased": 645,
      "qu": 646,
      "##ized": 647,
      "##ang": 648,
      "neg": 649,
      "##ose": 650,
      "phys": 651,
      "neck": 652,
      "down": 653,
      "cathe": 654,
      "##hed": 655,
      "##ificant": 656,
      "##ren": 657,
      "##rain": 658,
      "cm": 659,
      "##nt": 660,
      "##ler": 661,
      "vic": 662,
      "mass": 663,
      "negative": 664,
      "200": 665,
      "hyper": 666,
      "##pper": 667,
      "##pped": 668,
      "postoperative": 669,
      "made": 670,
      "met": 671,
      "##ff": 672,
      "significant": 673,
      "ass": 674,
      "##rol": 675,
      "col": 676,
      "does": 677,
      "co": 678,
      "id": 679,
      "upper": 680,
      "did": 681,
      "li": 682,
      "12": 683,
      "##ec": 684,
      "syst": 685,
      "##ified": 686,
      "##ym": 687,
      "second": 688,
      "preoperative": 689,
      "closed": 690,
      "good": 691,
      "tend": 692,
      "medications": 693,
      "giv": 694,
      "sm": 695,
      "cardi": 696,
      "##ace": 697,
      "wee": 698,
      "##ute": 699,
      "heart": 700,
      "medical": 701,
      "plan": 702,
      "evid": 703,
      "##oral": 704,
      "##cess": 705,
      "neu": 706,
      "##alp": 707,
      "##alu": 708,
      "vicryl": 709,
      "##very": 710,
      "abdomen": 711,
      "##ix": 712,
      "##osp": 713,
      "##ram": 714,
      "obtained": 715,
      "distal": 716,
      "wor": 717,
      "flu": 718,
      "subc": 719,
      "##atory": 720,
      "fin": 721,
      "da": 722,
      "ep": 723,
      "operating": 724,
      "approximately": 725,
      "##view": 726,
      "##cer": 727,
      "##ath": 728,
      "sin": 729,
      "##ning": 730,
      "ident": 731,
      "port": 732,
      "tub": 733,
      "contin": 734,
      "##up": 735,
      "ir": 736,
      "##ention": 737,
      "condition": 738,
      "##tern": 739,
      "##oss": 740,
      "em": 741,
      "sterile": 742,
      "##uss": 743,
      "both": 744,
      "surgery": 745,
      "##tic": 746,
      "##ving": 747,
      "evidence": 748,
      "complet": 749,
      "##ach": 750,
      "##umb": 751,
      "evalu": 752,
      "given": 753,
      "tissue": 754,
      "##veal": 755,
      "mild": 756,
      "##ca": 757,
      "side": 758,
      "reveal": 759,
      "lig": 760,
      "hosp": 761,
      "diagnos": 762,
      "##tal": 763,
      "les": 764,
      "small": 765,
      "catheter": 766,
      "review": 767,
      "##ptom": 768,
      "test": 769,
      "par": 770,
      "hospital": 771,
      "##ectomy": 772,
      "##ers": 773,
      "##ance": 774,
      "ris": 775,
      "##adder": 776,
      "level": 777,
      "symptom": 778,
      "inclu": 779,
      "wound": 780,
      "##und": 781,
      "about": 782,
      "disch": 783,
      "ed": 784,
      "act": 785,
      "##ximal": 786,
      "cy": 787,
      "desc": 788,
      "##asis": 789,
      "system": 790,
      "drap": 791,
      "finding": 792,
      "ble": 793,
      "denies": 794,
      "stable": 795,
      "##yl": 796,
      "##stru": 797,
      "op": 798,
      "report": 799,
      "physical": 800,
      "ey": 801,
      "##vious": 802,
      "##ms": 803,
      "man": 804,
      "rad": 805,
      "##ice": 806,
      "##atic": 807,
      "##eding": 808,
      "proximal": 809,
      "bilaterally": 810,
      "loc": 811,
      "##aneous": 812,
      "dur": 813,
      "##ium": 814,
      "done": 815,
      "allerg": 816,
      "intact": 817,
      "15": 818,
      "medial": 819,
      "##ension": 820,
      "##iqu": 821,
      "seen": 822,
      "very": 823,
      "loss": 824,
      "##oma": 825,
      "##ency": 826,
      "discuss": 827,
      "te": 828,
      "##air": 829,
      "fam": 830,
      "po": 831,
      "##asc": 832,
      "prepped": 833,
      "##gh": 834,
      "diffic": 835,
      "findings": 836,
      "##ein": 837,
      "family": 838,
      "complications": 839,
      "daily": 840,
      "##day": 841,
      "##ene": 842,
      "##sy": 843,
      "di": 844,
      "cal": 845,
      "subcut": 846,
      "visual": 847,
      "difficult": 848,
      "super": 849,
      "hemost": 850,
      "extremities": 851,
      "ant": 852,
      "symptoms": 853,
      "##ove": 854,
      "20": 855,
      "##ust": 856,
      "ref": 857,
      "vent": 858,
      "draped": 859,
      "none": 860,
      "##rig": 861,
      "##usion": 862,
      "##ange": 863,
      "##xt": 864,
      "##ked": 865,
      "toler": 866,
      "pri": 867,
      "##red": 868,
      "sup": 869,
      "##ars": 870,
      "gu": 871,
      "oc": 872,
      "##king": 873,
      "dep": 874,
      "identified": 875,
      "ill": 876,
      "prior": 877,
      "##rache": 878,
      "fasc": 879,
      "within": 880,
      "bi": 881,
      "##oph": 882,
      "##aint": 883,
      "ur": 884,
      "showed": 885,
      "rate": 886,
      "##ided": 887,
      "fur": 888,
      "##aine": 889,
      "sw": 890,
      "coronary": 891,
      "further": 892,
      "signs": 893,
      "##ried": 894,
      "once": 895,
      "rem": 896,
      "insert": 897,
      "##ures": 898,
      "surgical": 899,
      "broug": 900,
      "brought": 901,
      "sl": 902,
      "next": 903,
      "diagnoses": 904,
      "curr": 905,
      "bleeding": 906,
      "##cted": 907,
      "soft": 908,
      "##ology": 909,
      "than": 910,
      "hypert": 911,
      "##pect": 912,
      "es": 913,
      "fir": 914,
      "bet": 915,
      "##erve": 916,
      "bone": 917,
      "##ark": 918,
      "above": 919,
      "point": 920,
      "##athy": 921,
      "##reased": 922,
      "##ascular": 923,
      "##icular": 924,
      "##unction": 925,
      "##arg": 926,
      "should": 927,
      "##ian": 928,
      "##ross": 929,
      "##co": 930,
      "ang": 931,
      "##ung": 932,
      "would": 933,
      "treat": 934,
      "occ": 935,
      "##ible": 936,
      "##ured": 937,
      "mod": 938,
      "tem": 939,
      "acute": 940,
      "ul": 941,
      "##str": 942,
      "##otic": 943,
      "kne": 944,
      "him": 945,
      "joint": 946,
      "appl": 947,
      "needle": 948,
      "dissection": 949,
      "lab": 950,
      "intra": 951,
      "bladder": 952,
      "again": 953,
      "##oscopy": 954,
      "mult": 955,
      "proble": 956,
      "long": 957,
      "25": 958,
      "muscle": 959,
      "bow": 960,
      "previous": 961,
      "gr": 962,
      "female": 963,
      "weight": 964,
      "irrig": 965,
      "##ending": 966,
      "how": 967,
      "lung": 968,
      "##ounds": 969,
      "open": 970,
      "allergies": 971,
      "found": 972,
      "ost": 973,
      "##les": 974,
      "##ronic": 975,
      "month": 976,
      "spec": 977,
      "##ended": 978,
      "elev": 979,
      "if": 980,
      "##ise": 981,
      "##til": 982,
      "##li": 983,
      "abdominal": 984,
      "bowel": 985,
      "nerve": 986,
      "##ock": 987,
      "##arkable": 988,
      "deg": 989,
      "palp": 990,
      "##ore": 991,
      "red": 992,
      "dire": 993,
      "respir": 994,
      "##ervical": 995,
      "when": 996,
      "lym": 997,
      "##rib": 998,
      "more": 999,
      "tube": 1000,
      "iv": 1001,
      "may": 1002,
      "tolerated": 1003,
      "infer": 1004,
      "##line": 1005,
      "##igh": 1006,
      "##ious": 1007,
      "treatment": 1008,
      "##otomy": 1009,
      "years": 1010,
      "vein": 1011,
      "status": 1012,
      "##ame": 1013,
      "these": 1014,
      "poss": 1015,
      "##ially": 1016,
      "last": 1017,
      "chronic": 1018,
      "##rop": 1019,
      "use": 1020,
      "##ament": 1021,
      "ventric": 1022,
      "off": 1023,
      "discussed": 1024,
      "lim": 1025,
      "ph": 1026,
      "gl": 1027,
      "my": 1028,
      "reco": 1029,
      "##ont": 1030,
      "today": 1031,
      "##ile": 1032,
      "fib": 1033,
      "##ever": 1034,
      "##monary": 1035,
      "drain": 1036,
      "applied": 1037,
      "11": 1038,
      "##ema": 1039,
      "lymph": 1040,
      "nas": 1041,
      "##itive": 1042,
      "##rapy": 1043,
      "##ication": 1044,
      "cervical": 1045,
      "##pri": 1046,
      "det": 1047,
      "part": 1048,
      "first": 1049,
      "##tered": 1050,
      "##ised": 1051,
      "unrem": 1052,
      "unremarkable": 1053,
      "##ov": 1054,
      "continu": 1055,
      "fract": 1056,
      "##rolog": 1057,
      "ligament": 1058,
      "where": 1059,
      "fascia": 1060,
      "sev": 1061,
      "adv": 1062,
      "evaluation": 1063,
      "knee": 1064,
      "##ption": 1065,
      "kn": 1066,
      "appropri": 1067,
      "days": 1068,
      "##ize": 1069,
      "##gth": 1070,
      "##pted": 1071,
      "illness": 1072,
      "uter": 1073,
      "difficulty": 1074,
      "hemostasis": 1075,
      "chang": 1076,
      "discharge": 1077,
      "##ator": 1078,
      "##ax": 1079,
      "##roid": 1080,
      "exp": 1081,
      "biop": 1082,
      "foot": 1083,
      "bre": 1084,
      "##ature": 1085,
      "go": 1086,
      "aort": 1087,
      "ml": 1088,
      "see": 1089,
      "inferior": 1090,
      "##rial": 1091,
      "scre": 1092,
      "vital": 1093,
      "usual": 1094,
      "ple": 1095,
      "following": 1096,
      "however": 1097,
      "home": 1098,
      "fluid": 1099,
      "ga": 1100,
      "rel": 1101,
      "count": 1102,
      "##med": 1103,
      "subcutaneous": 1104,
      "##omm": 1105,
      "##ody": 1106,
      "during": 1107,
      "##ally": 1108,
      "abn": 1109,
      "##ons": 1110,
      "abnormal": 1111,
      "recovery": 1112,
      "sat": 1113,
      "##tr": 1114,
      "sten": 1115,
      "##par": 1116,
      "##elv": 1117,
      "states": 1118,
      "19": 1119,
      "table": 1120,
      "##ization": 1121,
      "they": 1122,
      "est": 1123,
      "three": 1124,
      "##aryn": 1125,
      "oste": 1126,
      "##ility": 1127,
      "elect": 1128,
      "extremity": 1129,
      "aw": 1130,
      "hour": 1131,
      "dys": 1132,
      "total": 1133,
      "aspect": 1134,
      "##ogram": 1135,
      "breat": 1136,
      "pulmonary": 1137,
      "##enal": 1138,
      "##round": 1139,
      "##opathy": 1140,
      "infection": 1141,
      "eye": 1142,
      "supp": 1143,
      "##ferred": 1144,
      "severe": 1145,
      "breath": 1146,
      "place": 1147,
      "regular": 1148,
      "weeks": 1149,
      "##ater": 1150,
      "full": 1151,
      "##velop": 1152,
      "start": 1153,
      "revealed": 1154,
      "ap": 1155,
      "large": 1156,
      "##iated": 1157,
      "##ural": 1158,
      "colon": 1159,
      "neurolog": 1160,
      "##ough": 1161,
      "superior": 1162,
      "multip": 1163,
      "acc": 1164,
      "pr": 1165,
      "clin": 1166,
      "complete": 1167,
      "attention": 1168,
      "short": 1169,
      "stenosis": 1170,
      "sens": 1171,
      "addition": 1172,
      "hemat": 1173,
      "run": 1174,
      "sutures": 1175,
      "##are": 1176,
      "develop": 1177,
      "ct": 1178,
      "impression": 1179,
      "##urned": 1180,
      "ray": 1181,
      "risks": 1182,
      "##ening": 1183,
      "femoral": 1184,
      "rest": 1185,
      "##iting": 1186,
      "like": 1187,
      "complaint": 1188,
      "consent": 1189,
      "multiple": 1190,
      "edema": 1191,
      "pass": 1192,
      "##unt": 1193,
      "##racheal": 1194,
      "problems": 1195,
      "30": 1196,
      "##ake": 1197,
      "systems": 1198,
      "male": 1199,
      "gra": 1200,
      "could": 1201,
      "eff": 1202,
      "consist": 1203,
      "supine": 1204,
      "gast": 1205,
      "##urs": 1206,
      "site": 1207,
      "inserted": 1208,
      "white": 1209,
      "hypertension": 1210,
      "cut": 1211,
      "cyst": 1212,
      "##du": 1213,
      "rect": 1214,
      "prot": 1215,
      "detail": 1216,
      "##struction": 1217,
      "cc": 1218,
      "100": 1219,
      "##utery": 1220,
      "recomm": 1221,
      "dress": 1222,
      "##ates": 1223,
      "##ution": 1224,
      "operative": 1225,
      "assess": 1226,
      "##vement": 1227,
      "renal": 1228,
      "ago": 1229,
      "##ents": 1230,
      "##raction": 1231,
      "##thm": 1232,
      "tum": 1233,
      "impro": 1234,
      "pelv": 1235,
      "fracture": 1236,
      "since": 1237,
      "exce": 1238,
      "lesion": 1239,
      "including": 1240,
      "##row": 1241,
      "stud": 1242,
      "wall": 1243,
      "##ique": 1244,
      "changes": 1245,
      "##ick": 1246,
      "##ped": 1247,
      "##emb": 1248,
      "soc": 1249,
      "##amin": 1250,
      "13": 1251,
      "throughout": 1252,
      "requ": 1253,
      "##aining": 1254,
      "leg": 1255,
      "hern": 1256,
      "##de": 1257,
      "midline": 1258,
      "sa": 1259,
      "cent": 1260,
      "init": 1261,
      "week": 1262,
      "having": 1263,
      "##gest": 1264,
      "exc": 1265,
      "tendon": 1266,
      "appropriate": 1267,
      "muc": 1268,
      "##reated": 1269,
      "##ternal": 1270,
      "val": 1271,
      "##erm": 1272,
      "lid": 1273,
      "##hythm": 1274,
      "due": 1275,
      "ear": 1276,
      "dors": 1277,
      "##rill": 1278,
      "##essel": 1279,
      "antib": 1280,
      "moder": 1281,
      "work": 1282,
      "screw": 1283,
      "emerg": 1284,
      "radi": 1285,
      "respiratory": 1286,
      "hand": 1287,
      "conf": 1288,
      "local": 1289,
      "carried": 1290,
      "therapy": 1291,
      "##ount": 1292,
      "vessel": 1293,
      "##arged": 1294,
      "def": 1295,
      "free": 1296,
      "able": 1297,
      "dem": 1298,
      "calc": 1299,
      "breast": 1300,
      "flex": 1301,
      "mother": 1302,
      "social": 1303,
      "cell": 1304,
      "##enous": 1305,
      "##iotic": 1306,
      "pat": 1307,
      "##ocaine": 1308,
      "smo": 1309,
      "##rupted": 1310,
      "##eb": 1311,
      "positive": 1312,
      "secondary": 1313,
      "bene": 1314,
      "air": 1315,
      "c5": 1316,
      "sinus": 1317,
      "scan": 1318,
      "function": 1319,
      "##bet": 1320,
      "##ultation": 1321,
      "ent": 1322,
      "##av": 1323,
      "diabet": 1324,
      "electro": 1325,
      "beca": 1326,
      "spine": 1327,
      "because": 1328,
      "running": 1329,
      "##ically": 1330,
      "interrupted": 1331,
      "size": 1332,
      "deep": 1333,
      "nasal": 1334,
      "being": 1335,
      "mor": 1336,
      "cir": 1337,
      "hyp": 1338,
      "##yp": 1339,
      "##otracheal": 1340,
      "now": 1341,
      "lob": 1342,
      "dil": 1343,
      "18": 1344,
      "##nal": 1345,
      "##utes": 1346,
      "heal": 1347,
      "along": 1348,
      "estim": 1349,
      "get": 1350,
      "cancer": 1351,
      "its": 1352,
      "##val": 1353,
      "abc": 1354,
      "fat": 1355,
      "sle": 1356,
      "tumor": 1357,
      "angi": 1358,
      "ure": 1359,
      "##itor": 1360,
      "cord": 1361,
      "irrigated": 1362,
      "amount": 1363,
      "##itted": 1364,
      "arth": 1365,
      "pulse": 1366,
      "##equ": 1367,
      "followed": 1368,
      "injur": 1369,
      "elevated": 1370,
      "##imal": 1371,
      "high": 1372,
      "just": 1373,
      "##chn": 1374,
      "adequ": 1375,
      "##phal": 1376,
      "##tt": 1377,
      "cour": 1378,
      "appeared": 1379,
      "##met": 1380,
      "##ription": 1381,
      "endotracheal": 1382,
      "14": 1383,
      "minutes": 1384,
      "lo": 1385,
      "drug": 1386,
      "estimated": 1387,
      "lesions": 1388,
      "aspir": 1389,
      "tender": 1390,
      "50": 1391,
      "antibiotic": 1392,
      "16": 1393,
      "sent": 1394,
      "weak": 1395,
      "blade": 1396,
      "c6": 1397,
      "##hol": 1398,
      "fren": 1399,
      "fever": 1400,
      "meas": 1401,
      "cardiac": 1402,
      "fac": 1403,
      "##verse": 1404,
      "portion": 1405,
      "lumb": 1406,
      "mri": 1407,
      "rhythm": 1408,
      "##ole": 1409,
      "age": 1410,
      "circ": 1411,
      "clam": 1412,
      "##otid": 1413,
      "sim": 1414,
      "possible": 1415,
      "emergency": 1416,
      "region": 1417,
      "techn": 1418,
      "french": 1419,
      "ax": 1420,
      "##ened": 1421,
      "heent": 1422,
      "##ulation": 1423,
      "caps": 1424,
      "##ma": 1425,
      "sal": 1426,
      "lap": 1427,
      "course": 1428,
      "expl": 1429,
      "dressing": 1430,
      "##ule": 1431,
      "biopsy": 1432,
      "##ues": 1433,
      "##ded": 1434,
      "##ful": 1435,
      "##elt": 1436,
      "external": 1437,
      "space": 1438,
      "four": 1439,
      "comm": 1440,
      "cop": 1441,
      "typ": 1442,
      "cav": 1443,
      "months": 1444,
      "body": 1445,
      "carotid": 1446,
      "##anced": 1447,
      "benef": 1448,
      "##artment": 1449,
      "subse": 1450,
      "##gment": 1451,
      "na": 1452,
      "inv": 1453,
      "rece": 1454,
      "poly": 1455,
      "fail": 1456,
      "##arp": 1457,
      "assessment": 1458,
      "plate": 1459,
      "aden": 1460,
      "##ner": 1461,
      "motion": 1462,
      "fi": 1463,
      "##ented": 1464,
      "##ason": 1465,
      "sol": 1466,
      "quest": 1467,
      "masses": 1468,
      "sever": 1469,
      "result": 1470,
      "bo": 1471,
      "felt": 1472,
      "repair": 1473,
      "anesthe": 1474,
      "##ished": 1475,
      "##itone": 1476,
      "moderate": 1477,
      "l5": 1478,
      "most": 1479,
      "##emia": 1480,
      "##uff": 1481,
      "##cin": 1482,
      "##fore": 1483,
      "only": 1484,
      "40": 1485,
      "lay": 1486,
      "##rome": 1487,
      "demon": 1488,
      "thy": 1489,
      "sleep": 1490,
      "demonstr": 1491,
      "feel": 1492,
      "gall": 1493,
      "hours": 1494,
      "retract": 1495,
      "great": 1496,
      "corre": 1497,
      "diabetes": 1498,
      "mur": 1499,
      "subsequ": 1500,
      "proce": 1501,
      "dissected": 1502,
      "##iat": 1503,
      "##elling": 1504,
      "around": 1505,
      "##ula": 1506,
      "infl": 1507,
      "graft": 1508,
      "motor": 1509,
      "operation": 1510,
      "##order": 1511,
      "reported": 1512,
      "av": 1513,
      "activ": 1514,
      "##opl": 1515,
      "##orr": 1516,
      "labor": 1517,
      "pen": 1518,
      "placement": 1519,
      "increased": 1520,
      "times": 1521,
      "current": 1522,
      "ma": 1523,
      "s1": 1524,
      "weakness": 1525,
      "##ysis": 1526,
      "admitted": 1527,
      "adequate": 1528,
      "distress": 1529,
      "murm": 1530,
      "cann": 1531,
      "indications": 1532,
      "child": 1533,
      "sheath": 1534,
      "peri": 1535,
      "path": 1536,
      "prob": 1537,
      "arm": 1538,
      "##neum": 1539,
      "vom": 1540,
      "##ds": 1541,
      "##we": 1542,
      "##omp": 1543,
      "prost": 1544,
      "##ronch": 1545,
      "minimal": 1546,
      "proceed": 1547,
      "##wise": 1548,
      "##oscopic": 1549,
      "gross": 1550,
      "ori": 1551,
      "sounds": 1552,
      "##amm": 1553,
      "##cohol": 1554,
      "advanced": 1555,
      "developed": 1556,
      "dorsal": 1557,
      "vag": 1558,
      "##ink": 1559,
      "informed": 1560,
      "alcohol": 1561,
      "shoulder": 1562,
      "pneum": 1563,
      "ank": 1564,
      "util": 1565,
      "stand": 1566,
      "nont": 1567,
      "temp": 1568,
      "numb": 1569,
      "shows": 1570,
      "##oscope": 1571,
      "##ender": 1572,
      "guide": 1573,
      "lobe": 1574,
      "range": 1575,
      "beg": 1576,
      "##ission": 1577,
      "transverse": 1578,
      "currently": 1579,
      "lungs": 1580,
      "continue": 1581,
      "ser": 1582,
      "light": 1583,
      "sed": 1584,
      "##atars": 1585,
      "technique": 1586,
      "type": 1587,
      "line": 1588,
      "##fice": 1589,
      "mic": 1590,
      "circum": 1591,
      "specim": 1592,
      "##ox": 1593,
      "tenderness": 1594,
      "upon": 1595,
      "redu": 1596,
      "injury": 1597,
      "slight": 1598,
      "equ": 1599,
      "wire": 1600,
      "##roph": 1601,
      "started": 1602,
      "sug": 1603,
      "##gal": 1604,
      "ventricular": 1605,
      "underw": 1606,
      "nontender": 1607,
      "len": 1608,
      "##rit": 1609,
      "##uch": 1610,
      "##anc": 1611,
      "##unct": 1612,
      "headac": 1613,
      "thor": 1614,
      "prog": 1615,
      "internal": 1616,
      "decreased": 1617,
      "ach": 1618,
      "flap": 1619,
      "several": 1620,
      "##ully": 1621,
      "direct": 1622,
      "mucos": 1623,
      "lapar": 1624,
      "##ife": 1625,
      "psy": 1626,
      "##fort": 1627,
      "sharp": 1628,
      "##illary": 1629,
      "lumbar": 1630,
      "saline": 1631,
      "ped": 1632,
      "##bil": 1633,
      "##onge": 1634,
      "underwent": 1635,
      "##ward": 1636,
      "reason": 1637,
      "spinal": 1638,
      "psych": 1639,
      "##fully": 1640,
      "##oce": 1641,
      "alert": 1642,
      "prol": 1643,
      "nause": 1644,
      "##arynx": 1645,
      "hyd": 1646,
      "less": 1647,
      "admin": 1648,
      "atrial": 1649,
      "metatars": 1650,
      "##ex": 1651,
      "bel": 1652,
      "quad": 1653,
      "pers": 1654,
      "otherwise": 1655,
      "vert": 1656,
      "##isf": 1657,
      "deli": 1658,
      "sept": 1659,
      "admission": 1660,
      "swelling": 1661,
      "vomiting": 1662,
      "##olic": 1663,
      "spe": 1664,
      "valve": 1665,
      "##ils": 1666,
      "satisf": 1667,
      "##ins": 1668,
      "##rast": 1669,
      "##ok": 1670,
      "esoph": 1671,
      "transferred": 1672,
      "injected": 1673,
      "consistent": 1674,
      "##icle": 1675,
      "nausea": 1676,
      "##ief": 1677,
      "##olar": 1678,
      "expos": 1679,
      "sac": 1680,
      "##plac": 1681,
      "##plant": 1682,
      "imag": 1683,
      "uterus": 1684,
      "temper": 1685,
      "##ually": 1686,
      "check": 1687,
      "length": 1688,
      "brain": 1689,
      "bronch": 1690,
      "du": 1691,
      "appears": 1692,
      "night": 1693,
      "##des": 1694,
      "##nea": 1695,
      "##galy": 1696,
      "##man": 1697,
      "##ined": 1698,
      "bran": 1699,
      "##inary": 1700,
      "##teriz": 1701,
      "bed": 1702,
      "dig": 1703,
      "rele": 1704,
      "##raum": 1705,
      "##ressive": 1706,
      "gastro": 1707,
      "benefits": 1708,
      "##ool": 1709,
      "##hen": 1710,
      "recent": 1711,
      "risk": 1712,
      "recurr": 1713,
      "description": 1714,
      "subsequently": 1715,
      "temperature": 1716,
      "passed": 1717,
      "##ple": 1718,
      "hip": 1719,
      "##elf": 1720,
      "##ective": 1721,
      "appar": 1722,
      "monitor": 1723,
      "supple": 1724,
      "ver": 1725,
      "aortic": 1726,
      "tourn": 1727,
      "##iquet": 1728,
      "tourniquet": 1729,
      "ii": 1730,
      "turned": 1731,
      "marg": 1732,
      "prim": 1733,
      "closure": 1734,
      "office": 1735,
      "canal": 1736,
      "additional": 1737,
      "##rease": 1738,
      "##arm": 1739,
      "lidocaine": 1740,
      "pot": 1741,
      "##asty": 1742,
      "fre": 1743,
      "epis": 1744,
      "failure": 1745,
      "60": 1746,
      "recommend": 1747,
      "confir": 1748,
      "el": 1749,
      "rot": 1750,
      "tro": 1751,
      "shortness": 1752,
      "l4": 1753,
      "until": 1754,
      "movement": 1755,
      "health": 1756,
      "case": 1757,
      "urine": 1758,
      "copious": 1759,
      "##rant": 1760,
      "##ocal": 1761,
      "satisfact": 1762,
      "suction": 1763,
      "liver": 1764,
      "tib": 1765,
      "abs": 1766,
      "return": 1767,
      "electroca": 1768,
      "ankle": 1769,
      "betwe": 1770,
      "between": 1771,
      "reviewed": 1772,
      "##ovascular": 1773,
      "cran": 1774,
      "##ney": 1775,
      "visualized": 1776,
      "stent": 1777,
      "synd": 1778,
      "kid": 1779,
      "reflex": 1780,
      "pounds": 1781,
      "##ves": 1782,
      "##lying": 1783,
      "invol": 1784,
      "episod": 1785,
      "cavity": 1786,
      "electrocautery": 1787,
      "allow": 1788,
      "resp": 1789,
      "##wn": 1790,
      "describ": 1791,
      "known": 1792,
      "##rine": 1793,
      "##dle": 1794,
      "insp": 1795,
      "##ting": 1796,
      "oral": 1797,
      "stren": 1798,
      "prov": 1799,
      "blunt": 1800,
      "pack": 1801,
      "ureter": 1802,
      "##ata": 1803,
      "procedures": 1804,
      "followup": 1805,
      "##ived": 1806,
      "contrast": 1807,
      "surf": 1808,
      "injection": 1809,
      "ausc": 1810,
      "block": 1811,
      "hel": 1812,
      "satisfactory": 1813,
      "bas": 1814,
      "append": 1815,
      "##eat": 1816,
      "change": 1817,
      "discharged": 1818,
      "fix": 1819,
      "##ental": 1820,
      "c4": 1821,
      "pac": 1822,
      "##ilar": 1823,
      "cardiovascular": 1824,
      "syndrome": 1825,
      "memb": 1826,
      "##ebral": 1827,
      "extens": 1828,
      "thyroid": 1829,
      "rea": 1830,
      "anesthetic": 1831,
      "##asion": 1832,
      "sciss": 1833,
      "department": 1834,
      "each": 1835,
      "wal": 1836,
      "assoc": 1837,
      "continued": 1838,
      "##orrh": 1839,
      "lip": 1840,
      "morning": 1841,
      "fing": 1842,
      "thick": 1843,
      "base": 1844,
      "ras": 1845,
      "enl": 1846,
      "##roscop": 1847,
      "cough": 1848,
      "reports": 1849,
      "order": 1850,
      "##ogra": 1851,
      "24": 1852,
      "our": 1853,
      "##iet": 1854,
      "div": 1855,
      "tr": 1856,
      "##arr": 1857,
      "##br": 1858,
      "gro": 1859,
      "you": 1860,
      "puls": 1861,
      "received": 1862,
      "scalp": 1863,
      "reveals": 1864,
      "neurologic": 1865,
      "tear": 1866,
      "##izing": 1867,
      "sedation": 1868,
      "achie": 1869,
      "treated": 1870,
      "liv": 1871,
      "##ritis": 1872,
      "##ctive": 1873,
      "##ber": 1874,
      "##terol": 1875,
      "##ired": 1876,
      "entire": 1877,
      "laboratory": 1878,
      "pathology": 1879,
      "##ulum": 1880,
      "sta": 1881,
      "solution": 1882,
      "##active": 1883,
      "hernia": 1884,
      "strength": 1885,
      "##rees": 1886,
      "##ope": 1887,
      "taking": 1888,
      "##the": 1889,
      "##ulated": 1890,
      "quadrant": 1891,
      "adminis": 1892,
      "vision": 1893,
      "##atell": 1894,
      "ox": 1895,
      "##eg": 1896,
      "removal": 1897,
      "underst": 1898,
      "muscles": 1899,
      "##ential": 1900,
      "##vers": 1901,
      "note": 1902,
      "presented": 1903,
      "gras": 1904,
      "middle": 1905,
      "excell": 1906,
      "screws": 1907,
      "every": 1908,
      "##gen": 1909,
      "carefully": 1910,
      "equal": 1911,
      "##bl": 1912,
      "excellent": 1913,
      "##ech": 1914,
      "neuro": 1915,
      "make": 1916,
      "##avi": 1917,
      "process": 1918,
      "##omet": 1919,
      "same": 1920,
      "fluor": 1921,
      "mr": 1922,
      "tons": 1923,
      "dry": 1924,
      "what": 1925,
      "medication": 1926,
      "chief": 1927,
      "fore": 1928,
      "active": 1929,
      "cult": 1930,
      "fall": 1931,
      "wr": 1932,
      "##pos": 1933,
      "##ret": 1934,
      "syn": 1935,
      "scissors": 1936,
      "##ubated": 1937,
      "##strum": 1938,
      "auscultation": 1939,
      "administered": 1940,
      "##itus": 1941,
      "nose": 1942,
      "##ez": 1943,
      "peritone": 1944,
      "vie": 1945,
      "seem": 1946,
      "control": 1947,
      "metatarsal": 1948,
      "view": 1949,
      "##bc": 1950,
      "##onal": 1951,
      "##vered": 1952,
      "##phalic": 1953,
      "##nel": 1954,
      "##flex": 1955,
      "##usp": 1956,
      "clean": 1957,
      "flow": 1958,
      "##iatric": 1959,
      "##yz": 1960,
      "regard": 1961,
      "antibiotics": 1962,
      "mal": 1963,
      "arteri": 1964,
      "instrum": 1965,
      "##outh": 1966,
      "completed": 1967,
      "pelvis": 1968,
      "ultr": 1969,
      "##ord": 1970,
      "new": 1971,
      "hemorrh": 1972,
      "diet": 1973,
      "central": 1974,
      "main": 1975,
      "##ills": 1976,
      "separ": 1977,
      "clinic": 1978,
      "marked": 1979,
      "thir": 1980,
      "limits": 1981,
      "hol": 1982,
      "associated": 1983,
      "correct": 1984,
      "oriented": 1985,
      "vaginal": 1986,
      "##caine": 1987,
      "##ley": 1988,
      "decomp": 1989,
      "mucosa": 1990,
      "while": 1991,
      "final": 1992,
      "vascular": 1993,
      "suggest": 1994,
      "stit": 1995,
      "degrees": 1996,
      "vers": 1997,
      "stri": 1998,
      "stress": 1999,
      "marcaine": 2000,
      "80": 2001,
      "call": 2002,
      "term": 2003,
      "##ancy": 2004,
      "previously": 2005,
      "bru": 2006,
      "ke": 2007,
      "##hea": 2008,
      "##ings": 2009,
      "ultras": 2010,
      "const": 2011,
      "areas": 2012,
      "going": 2013,
      "abnormalities": 2014,
      "##cinoma": 2015,
      "pup": 2016,
      "##ism": 2017,
      "##ited": 2018,
      "unable": 2019,
      "kidney": 2020,
      "tun": 2021,
      "tip": 2022,
      "still": 2023,
      "adhes": 2024,
      "carp": 2025,
      "##ontin": 2026,
      "##icul": 2027,
      "xyz": 2028,
      "dose": 2029,
      "plant": 2030,
      "ultrasound": 2031,
      "mouth": 2032,
      "stru": 2033,
      "##uria": 2034,
      "symmet": 2035,
      "data": 2036,
      "##lob": 2037,
      "manag": 2038,
      "membran": 2039,
      "##read": 2040,
      "laterally": 2041,
      "pelvic": 2042,
      "murmur": 2043,
      "##acer": 2044,
      "##ration": 2045,
      "##oon": 2046,
      "sit": 2047,
      "perc": 2048,
      "slightly": 2049,
      "pal": 2050,
      "##erc": 2051,
      "thro": 2052,
      "attem": 2053,
      "22": 2054,
      "venous": 2055,
      "##eld": 2056,
      "tissues": 2057,
      "initially": 2058,
      "esophag": 2059,
      "via": 2060,
      "##lled": 2061,
      "##ograp": 2062,
      "##ification": 2063,
      "denied": 2064,
      "occasion": 2065,
      "study": 2066,
      "##urg": 2067,
      "doing": 2068,
      "##ography": 2069,
      "outp": 2070,
      "studies": 2071,
      "bro": 2072,
      "ov": 2073,
      "##aring": 2074,
      "temporal": 2075,
      "##ae": 2076,
      "resection": 2077,
      "retro": 2078,
      "##medi": 2079,
      "ben": 2080,
      "trache": 2081,
      "##eter": 2082,
      "##ably": 2083,
      "descending": 2084,
      "opened": 2085,
      "here": 2086,
      "##ker": 2087,
      "##though": 2088,
      "although": 2089,
      "greater": 2090,
      "08": 2091,
      "000": 2092,
      "ball": 2093,
      "##jective": 2094,
      "concer": 2095,
      "implant": 2096,
      "##hg": 2097,
      "sponge": 2098,
      "sensory": 2099,
      "surface": 2100,
      "stom": 2101,
      "root": 2102,
      "prostate": 2103,
      "patell": 2104,
      "17": 2105,
      "rh": 2106,
      "##iltr": 2107,
      "presents": 2108,
      "recurrent": 2109,
      "seiz": 2110,
      "needed": 2111,
      "br": 2112,
      "questions": 2113,
      "mater": 2114,
      "presc": 2115,
      "visualization": 2116,
      "help": 2117,
      "oxy": 2118,
      "throat": 2119,
      "ery": 2120,
      "##ereb": 2121,
      "secured": 2122,
      "specimen": 2123,
      "activity": 2124,
      "creat": 2125,
      "mmhg": 2126,
      "achieved": 2127,
      "cart": 2128,
      "fact": 2129,
      "nerv": 2130,
      "round": 2131,
      "inst": 2132,
      "##itation": 2133,
      "##ician": 2134,
      "perip": 2135,
      "##omegaly": 2136,
      "compression": 2137,
      "plantar": 2138,
      "##cal": 2139,
      "degen": 2140,
      "sil": 2141,
      "##ches": 2142,
      "across": 2143,
      "aorta": 2144,
      "obstruction": 2145,
      "indic": 2146,
      "grade": 2147,
      "common": 2148,
      "carpal": 2149,
      "cuff": 2150,
      "scope": 2151,
      "infiltr": 2152,
      "include": 2153,
      "third": 2154,
      "stomach": 2155,
      "coll": 2156,
      "likely": 2157,
      "bun": 2158,
      "gent": 2159,
      "disk": 2160,
      "recently": 2161,
      "##ability": 2162,
      "primary": 2163,
      "struct": 2164,
      "hep": 2165,
      "take": 2166,
      "muscul": 2167,
      "##cl": 2168,
      "subcuticular": 2169,
      "##go": 2170,
      "frequ": 2171,
      "directed": 2172,
      "bab": 2173,
      "et": 2174,
      "completely": 2175,
      "##ider": 2176,
      "##other": 2177,
      "##oglob": 2178,
      "speech": 2179,
      "##ctomy": 2180,
      "defect": 2181,
      "bovie": 2182,
      "demonstrated": 2183,
      "bon": 2184,
      "resol": 2185,
      "described": 2186,
      "tunnel": 2187,
      "peripher": 2188,
      "much": 2189,
      "pe": 2190,
      "##ind": 2191,
      "palpable": 2192,
      "reflexes": 2193,
      "perf": 2194,
      "eyes": 2195,
      "similar": 2196,
      "##reas": 2197,
      "better": 2198,
      "##rophy": 2199,
      "dou": 2200,
      "##phrine": 2201,
      "drill": 2202,
      "possib": 2203,
      "hydro": 2204,
      "spl": 2205,
      "##ardial": 2206,
      "branch": 2207,
      "##oug": 2208,
      "stated": 2209,
      "gait": 2210,
      "cereb": 2211,
      "##way": 2212,
      "##illed": 2213,
      "returned": 2214,
      "##kelet": 2215,
      "confirmed": 2216,
      "##aden": 2217,
      "##romb": 2218,
      "pulses": 2219,
      "stapl": 2220,
      "##ologic": 2221,
      "uterine": 2222,
      "form": 2223,
      "disorder": 2224,
      "quite": 2225,
      "##oglobin": 2226,
      "bul": 2227,
      "segment": 2228,
      "father": 2229,
      "standard": 2230,
      "90": 2231,
      "##peri": 2232,
      "hal": 2233,
      "##ces": 2234,
      "close": 2235,
      "##itud": 2236,
      "altern": 2237,
      "monoc": 2238,
      "results": 2239,
      "finger": 2240,
      "erythe": 2241,
      "lead": 2242,
      "few": 2243,
      "visit": 2244,
      "minute": 2245,
      "urinary": 2246,
      "band": 2247,
      "##wire": 2248,
      "deform": 2249,
      "perform": 2250,
      "patent": 2251,
      "gallbl": 2252,
      "thorac": 2253,
      "gallbladder": 2254,
      "var": 2255,
      "##rosis": 2256,
      "divided": 2257,
      "unit": 2258,
      "physician": 2259,
      "manner": 2260,
      "complaints": 2261,
      "wheez": 2262,
      "epine": 2263,
      "cre": 2264,
      "maint": 2265,
      "extra": 2266,
      "immedi": 2267,
      "glu": 2268,
      "##ident": 2269,
      "stage": 2270,
      "satur": 2271,
      "pupils": 2272,
      "##onia": 2273,
      "##inine": 2274,
      "199": 2275,
      "##idual": 2276,
      "conj": 2277,
      "incised": 2278,
      "##ostic": 2279,
      "layer": 2280,
      "##rolled": 2281,
      "##vert": 2282,
      "cautery": 2283,
      "extended": 2284,
      "fibrill": 2285,
      "facial": 2286,
      "based": 2287,
      "reactive": 2288,
      "thromb": 2289,
      "rectal": 2290,
      "troc": 2291,
      "pad": 2292,
      "vit": 2293,
      "##ns": 2294,
      "##ylon": 2295,
      "prolene": 2296,
      "creatinine": 2297,
      "mom": 2298,
      "##kg": 2299,
      "evaluated": 2300,
      "epinephrine": 2301,
      "ce": 2302,
      "##gu": 2303,
      "70": 2304,
      "litt": 2305,
      "sing": 2306,
      "lymphaden": 2307,
      "headaches": 2308,
      "section": 2309,
      "##ying": 2310,
      "bec": 2311,
      "congest": 2312,
      "ulcer": 2313,
      "intraoperative": 2314,
      "pregn": 2315,
      "flus": 2316,
      "##ought": 2317,
      "cur": 2318,
      "hemoglobin": 2319,
      "2007": 2320,
      "pleas": 2321,
      "gau": 2322,
      "capsule": 2323,
      "explained": 2324,
      "duct": 2325,
      "##terization": 2326,
      "tibial": 2327,
      "went": 2328,
      "replac": 2329,
      "debr": 2330,
      "eas": 2331,
      "nylon": 2332,
      "##min": 2333,
      "epid": 2334,
      "little": 2335,
      "##uring": 2336,
      "related": 2337,
      "bip": 2338,
      "##rawn": 2339,
      "sided": 2340,
      "wa": 2341,
      "insertion": 2342,
      "slow": 2343,
      "clinical": 2344,
      "improved": 2345,
      "ech": 2346,
      "##ned": 2347,
      "##ments": 2348,
      "##oste": 2349,
      "entered": 2350,
      "cort": 2351,
      "##ocular": 2352,
      "instrument": 2353,
      "mc": 2354,
      "defic": 2355,
      "ekg": 2356,
      "mes": 2357,
      "intrav": 2358,
      "cartil": 2359,
      "fron": 2360,
      "units": 2361,
      "cr": 2362,
      "##ressed": 2363,
      "consultation": 2364,
      "enc": 2365,
      "below": 2366,
      "nerves": 2367,
      "##ina": 2368,
      "depression": 2369,
      "intro": 2370,
      "diagnosed": 2371,
      "began": 2372,
      "therefore": 2373,
      "##ageal": 2374,
      "ker": 2375,
      "lum": 2376,
      "##bul": 2377,
      "before": 2378,
      "cham": 2379,
      "assist": 2380,
      "reduction": 2381,
      "adhesions": 2382,
      "32": 2383,
      "wors": 2384,
      "dev": 2385,
      "foley": 2386,
      "grossly": 2387,
      "##bing": 2388,
      "norm": 2389,
      "##of": 2390,
      "such": 2391,
      "complex": 2392,
      "recommended": 2393,
      "oxygen": 2394,
      "gentle": 2395,
      "cer": 2396,
      "aff": 2397,
      "indu": 2398,
      "##oplasty": 2399,
      "##unctiv": 2400,
      "five": 2401,
      "put": 2402,
      "abcd": 2403,
      "later": 2404,
      "gluc": 2405,
      "compon": 2406,
      "repeat": 2407,
      "carcinoma": 2408,
      "diff": 2409,
      "grasped": 2410,
      "single": 2411,
      "rub": 2412,
      "stool": 2413,
      "##ges": 2414,
      "##lected": 2415,
      "monocryl": 2416,
      "nar": 2417,
      "diarr": 2418,
      "pleasant": 2419,
      "diarrhea": 2420,
      "men": 2421,
      "##arth": 2422,
      "##astic": 2423,
      "##astom": 2424,
      "excision": 2425,
      "##keletal": 2426,
      "feet": 2427,
      "images": 2428,
      "opt": 2429,
      "oroph": 2430,
      "vol": 2431,
      "thin": 2432,
      "irrigation": 2433,
      "drainage": 2434,
      "saw": 2435,
      "##ocephalic": 2436,
      "peripheral": 2437,
      "created": 2438,
      "dri": 2439,
      "diagnostic": 2440,
      "palpation": 2441,
      "##att": 2442,
      "fixation": 2443,
      "erythema": 2444,
      "ten": 2445,
      "##aqu": 2446,
      "clamp": 2447,
      "scalpel": 2448,
      "anastom": 2449,
      "##omfort": 2450,
      "del": 2451,
      "chole": 2452,
      "consider": 2453,
      "inflamm": 2454,
      "utilizing": 2455,
      "thought": 2456,
      "##used": 2457,
      "testing": 2458,
      "sensation": 2459,
      "balloon": 2460,
      "07": 2461,
      "##jection": 2462,
      "##eth": 2463,
      "obs": 2464,
      "poor": 2465,
      "initial": 2466,
      "vessels": 2467,
      "withd": 2468,
      "obvious": 2469,
      "##lux": 2470,
      "##itting": 2471,
      "guidewire": 2472,
      "26": 2473,
      "ast": 2474,
      "c7": 2475,
      "ster": 2476,
      "##ached": 2477,
      "hall": 2478,
      "regarding": 2479,
      "fibrillation": 2480,
      "six": 2481,
      "stra": 2482,
      "##vix": 2483,
      "partial": 2484,
      "##raumatic": 2485,
      "cervix": 2486,
      "75": 2487,
      "near": 2488,
      "counts": 2489,
      "numbness": 2490,
      "management": 2491,
      "##ling": 2492,
      "##rec": 2493,
      "ingu": 2494,
      "distally": 2495,
      "inguinal": 2496,
      "um": 2497,
      "##ril": 2498,
      "##ucle": 2499,
      "remaining": 2500,
      "hepat": 2501,
      "pregnancy": 2502,
      "umbil": 2503,
      "controlled": 2504,
      "##ires": 2505,
      "##structed": 2506,
      "osteop": 2507,
      "neurological": 2508,
      "decompression": 2509,
      "pull": 2510,
      "except": 2511,
      "reapp": 2512,
      "hard": 2513,
      "twice": 2514,
      "##vent": 2515,
      "instruction": 2516,
      "##anosis": 2517,
      "##oskeletal": 2518,
      "##othe": 2519,
      "apprec": 2520,
      "cap": 2521,
      "period": 2522,
      "lives": 2523,
      "##zen": 2524,
      "consult": 2525,
      "ligated": 2526,
      "half": 2527,
      "pred": 2528,
      "##rag": 2529,
      "remove": 2530,
      "cranial": 2531,
      "musculoskeletal": 2532,
      "way": 2533,
      "stro": 2534,
      "deformity": 2535,
      "##ott": 2536,
      "enlarged": 2537,
      "bony": 2538,
      "lymphadenopathy": 2539,
      "45": 2540,
      "face": 2541,
      "nodes": 2542,
      "##ulin": 2543,
      "2008": 2544,
      "effusion": 2545,
      "nond": 2546,
      "bit": 2547,
      "##entially": 2548,
      "##roxim": 2549,
      "vertebral": 2550,
      "##reg": 2551,
      "top": 2552,
      "aspirin": 2553,
      "laparoscopic": 2554,
      "silk": 2555,
      "degenerative": 2556,
      "##yt": 2557,
      "unc": 2558,
      "##ysm": 2559,
      "respirations": 2560,
      "conjunctiv": 2561,
      "came": 2562,
      "##yn": 2563,
      "##oration": 2564,
      "remain": 2565,
      "##ograph": 2566,
      "reapproxim": 2567,
      "##lated": 2568,
      "##aract": 2569,
      "told": 2570,
      "orth": 2571,
      "##rict": 2572,
      "ili": 2573,
      "##assium": 2574,
      "susp": 2575,
      "##sw": 2576,
      "##hyl": 2577,
      "##ondyl": 2578,
      "uln": 2579,
      "degree": 2580,
      "potassium": 2581,
      "##sp": 2582,
      "##isc": 2583,
      "scler": 2584,
      "obes": 2585,
      "cyanosis": 2586,
      "grad": 2587,
      "straight": 2588,
      "iss": 2589,
      "psychiatric": 2590,
      "diam": 2591,
      "proximally": 2592,
      "fair": 2593,
      "lad": 2594,
      "t1": 2595,
      "asked": 2596,
      "suite": 2597,
      "##ologist": 2598,
      "problem": 2599,
      "retracted": 2600,
      "stitch": 2601,
      "chamber": 2602,
      "##lor": 2603,
      "experi": 2604,
      "##ficial": 2605,
      "appearing": 2606,
      "excised": 2607,
      "pneumonia": 2608,
      "normocephalic": 2609,
      "adj": 2610,
      "sched": 2611,
      "residual": 2612,
      "##oids": 2613,
      "field": 2614,
      "catheterization": 2615,
      "delivery": 2616,
      "exerc": 2617,
      "understand": 2618,
      "intravenous": 2619,
      "nonc": 2620,
      "movements": 2621,
      "oropharynx": 2622,
      "serv": 2623,
      "##ume": 2624,
      "chills": 2625,
      "scar": 2626,
      "discomfort": 2627,
      "systolic": 2628,
      "center": 2629,
      "##wards": 2630,
      "strips": 2631,
      "outpatient": 2632,
      "##pass": 2633,
      "bypass": 2634,
      "biops": 2635,
      "trocar": 2636,
      "instructions": 2637,
      "##ugh": 2638,
      "indication": 2639,
      "##ember": 2640,
      "tit": 2641,
      "access": 2642,
      "inspected": 2643,
      "structures": 2644,
      "sch": 2645,
      "##ts": 2646,
      "contact": 2647,
      "request": 2648,
      "diffuse": 2649,
      "os": 2650,
      "##tim": 2651,
      "anemia": 2652,
      "question": 2653,
      "bipolar": 2654,
      "ulnar": 2655,
      "nucle": 2656,
      "answ": 2657,
      "##ribut": 2658,
      "##duced": 2659,
      "toe": 2660,
      "hematoma": 2661,
      "glucose": 2662,
      "##ring": 2663,
      "##ored": 2664,
      "tob": 2665,
      "referred": 2666,
      "chem": 2667,
      "28": 2668,
      "border": 2669,
      "c3": 2670,
      "las": 2671,
      "##hem": 2672,
      "them": 2673,
      "ventricle": 2674,
      "platelet": 2675,
      "utilized": 2676,
      "23": 2677,
      "prop": 2678,
      "esophagus": 2679,
      "easily": 2680,
      "pin": 2681,
      "force": 2682,
      "##rile": 2683,
      "teeth": 2684,
      "material": 2685,
      "mention": 2686,
      "##ump": 2687,
      "hematoc": 2688,
      "derm": 2689,
      "##gan": 2690,
      "aspiration": 2691,
      "lamin": 2692,
      "##set": 2693,
      "membranes": 2694,
      "rout": 2695,
      "##ias": 2696,
      "positioned": 2697,
      "appearance": 2698,
      "limited": 2699,
      "##ughter": 2700,
      "focal": 2701,
      "ring": 2702,
      "sha": 2703,
      "chart": 2704,
      "flexion": 2705,
      "cure": 2706,
      "##inous": 2707,
      "read": 2708,
      "##ardiogram": 2709,
      "##acco": 2710,
      "promin": 2711,
      "excess": 2712,
      "benign": 2713,
      "gentleman": 2714,
      "tobacco": 2715,
      "tong": 2716,
      "##ides": 2717,
      "probably": 2718,
      "progressive": 2719,
      "hearing": 2720,
      "##allow": 2721,
      "somew": 2722,
      "radial": 2723,
      "rectus": 2724,
      "layers": 2725,
      "released": 2726,
      "wrist": 2727,
      "95": 2728,
      "pur": 2729,
      "##vention": 2730,
      "conn": 2731,
      "anteriorly": 2732,
      "##cyst": 2733,
      "foram": 2734,
      "please": 2735,
      "##reasing": 2736,
      "anastomosis": 2737,
      "answer": 2738,
      "died": 2739,
      "underlying": 2740,
      "away": 2741,
      "copiously": 2742,
      "gi": 2743,
      "extubated": 2744,
      "awak": 2745,
      "dilated": 2746,
      "##sf": 2747,
      "##ester": 2748,
      "##moid": 2749,
      "extension": 2750,
      "obstru": 2751,
      "superficial": 2752,
      "encou": 2753,
      "device": 2754,
      "gran": 2755,
      "##mar": 2756,
      "tooth": 2757,
      "##formation": 2758,
      "circumflex": 2759,
      "baby": 2760,
      "21": 2761,
      "##head": 2762,
      "##rie": 2763,
      "daughter": 2764,
      "micro": 2765,
      "fusion": 2766,
      "##hat": 2767,
      "parents": 2768,
      "pleural": 2769,
      "protein": 2770,
      "healthy": 2771,
      "##atives": 2772,
      "node": 2773,
      "##ient": 2774,
      "##ats": 2775,
      "remained": 2776,
      "lacer": 2777,
      "increase": 2778,
      "metast": 2779,
      "effect": 2780,
      "episodes": 2781,
      "epidural": 2782,
      "##rade": 2783,
      "anx": 2784,
      "stop": 2785,
      "apparently": 2786,
      "recommendations": 2787,
      "attempt": 2788,
      "98": 2789,
      "mental": 2790,
      "support": 2791,
      "microscop": 2792,
      "tract": 2793,
      "##erved": 2794,
      "##ither": 2795,
      "500": 2796,
      "fra": 2797,
      "food": 2798,
      "##iency": 2799,
      "stab": 2800,
      "plain": 2801,
      "extensive": 2802,
      "##yed": 2803,
      "##ish": 2804,
      "orig": 2805,
      "abscess": 2806,
      "somewhat": 2807,
      "dro": 2808,
      "##fth": 2809,
      "myoc": 2810,
      "continuous": 2811,
      "cannula": 2812,
      "curett": 2813,
      "92": 2814,
      "tal": 2815,
      "another": 2816,
      "##uled": 2817,
      "resected": 2818,
      "tubes": 2819,
      "axis": 2820,
      "trachea": 2821,
      "echoc": 2822,
      "reapproximated": 2823,
      "tongue": 2824,
      "anal": 2825,
      "##esis": 2826,
      "prepar": 2827,
      "differ": 2828,
      "children": 2829,
      "##ster": 2830,
      "##eric": 2831,
      "clock": 2832,
      "moist": 2833,
      "number": 2834,
      "peritoneum": 2835,
      "##hal": 2836,
      "##bow": 2837,
      "##ips": 2838,
      "swallow": 2839,
      "adenopathy": 2840,
      "fifth": 2841,
      "elbow": 2842,
      "mentioned": 2843,
      "ms": 2844,
      "shunt": 2845,
      "medially": 2846,
      "persist": 2847,
      "issues": 2848,
      "##pan": 2849,
      "obl": 2850,
      "worse": 2851,
      "ureth": 2852,
      "cholecyst": 2853,
      "mem": 2854,
      "##adine": 2855,
      "interm": 2856,
      "incisions": 2857,
      "release": 2858,
      "junction": 2859,
      "ra": 2860,
      "stim": 2861,
      "undergo": 2862,
      "##iety": 2863,
      "want": 2864,
      "stay": 2865,
      "organ": 2866,
      "apparent": 2867,
      "flushed": 2868,
      "trial": 2869,
      "wife": 2870,
      "anat": 2871,
      "club": 2872,
      "endoc": 2873,
      "##ological": 2874,
      "headache": 2875,
      "double": 2876,
      "stroke": 2877,
      "brac": 2878,
      "osteotomy": 2879,
      "smoking": 2880,
      "gallop": 2881,
      "tone": 2882,
      "try": 2883,
      "##enol": 2884,
      "thigh": 2885,
      "colonoscopy": 2886,
      "improvement": 2887,
      "biopsies": 2888,
      "ace": 2889,
      "##az": 2890,
      "##ena": 2891,
      "##orn": 2892,
      "##rum": 2893,
      "hepar": 2894,
      "##romic": 2895,
      "arteries": 2896,
      "heparin": 2897,
      "97": 2898,
      "csf": 2899,
      "mix": 2900,
      "##adin": 2901,
      "##urred": 2902,
      "fluids": 2903,
      "arthritis": 2904,
      "suctioned": 2905,
      "35": 2906,
      "pt": 2907,
      "tra": 2908,
      "tight": 2909,
      "##rium": 2910,
      "peric": 2911,
      "resolved": 2912,
      "diameter": 2913,
      "forceps": 2914,
      "either": 2915,
      "sn": 2916,
      "##lf": 2917,
      "think": 2918,
      "beh": 2919,
      "gland": 2920,
      "cystic": 2921,
      "sites": 2922,
      "intervention": 2923,
      "flo": 2924,
      "betadine": 2925,
      "routine": 2926,
      "fet": 2927,
      "polyp": 2928,
      "septum": 2929,
      "##otherapy": 2930,
      "fol": 2931,
      "##card": 2932,
      "##ording": 2933,
      "clot": 2934,
      "extending": 2935,
      "rash": 2936,
      "introduced": 2937,
      "clubbing": 2938,
      "27": 2939,
      "##rot": 2940,
      "##oman": 2941,
      "asc": 2942,
      "##ostomy": 2943,
      "irreg": 2944,
      "alternatives": 2945,
      "irregular": 2946,
      "cry": 2947,
      "##side": 2948,
      "##ational": 2949,
      "imm": 2950,
      "completion": 2951,
      "angiogram": 2952,
      "clamped": 2953,
      "capsular": 2954,
      "##position": 2955,
      "er": 2956,
      "##ising": 2957,
      "chol": 2958,
      "##aking": 2959,
      "identif": 2960,
      "axillary": 2961,
      "activities": 2962,
      "delivered": 2963,
      "punct": 2964,
      "s2": 2965,
      "presentation": 2966,
      "occasional": 2967,
      "eight": 2968,
      "##ones": 2969,
      "##als": 2970,
      "levels": 2971,
      "radiation": 2972,
      "avoid": 2973,
      "warm": 2974,
      "height": 2975,
      "##aker": 2976,
      "rule": 2977,
      "##hyt": 2978,
      "cells": 2979,
      "iliac": 2980,
      "96": 2981,
      "##chem": 2982,
      "ischem": 2983,
      "##urb": 2984,
      "##othy": 2985,
      "posteriorly": 2986,
      "echocardiogram": 2987,
      "bur": 2988,
      "sk": 2989,
      "##madin": 2990,
      "##ffic": 2991,
      "coumadin": 2992,
      "married": 2993,
      "frontal": 2994,
      "experien": 2995,
      "##iness": 2996,
      "##ict": 2997,
      "suc": 2998,
      "transected": 2999,
      "fund": 3000,
      "##kn": 3001,
      "component": 3002,
      "##band": 3003,
      "longitud": 3004,
      "cartilage": 3005,
      "appreciated": 3006,
      "longitudinal": 3007,
      "subjective": 3008,
      "narrow": 3009,
      "lens": 3010,
      "##mg": 3011,
      "##vascular": 3012,
      "##omin": 3013,
      "atraumatic": 3014,
      "abuse": 3015,
      "##geal": 3016,
      "chromic": 3017,
      "infar": 3018,
      "said": 3019,
      "workup": 3020,
      "perioste": 3021,
      "hematocrit": 3022,
      "spont": 3023,
      "know": 3024,
      "breathing": 3025,
      "airway": 3026,
      "exposed": 3027,
      "exposure": 3028,
      "intermitt": 3029,
      "spontaneous": 3030,
      "brie": 3031,
      "hus": 3032,
      "max": 3033,
      "##onic": 3034,
      "inch": 3035,
      "staples": 3036,
      "gauge": 3037,
      "memory": 3038,
      "brief": 3039,
      "husband": 3040,
      "cbc": 3041,
      "la": 3042,
      "pm": 3043,
      "information": 3044,
      "rays": 3045,
      "calcium": 3046,
      "hum": 3047,
      "##uation": 3048,
      "##onse": 3049,
      "orb": 3050,
      "response": 3051,
      "05": 3052,
      "onset": 3053,
      "floor": 3054,
      "fati": 3055,
      "##lect": 3056,
      "edges": 3057,
      "culture": 3058,
      "nurs": 3059,
      "##acent": 3060,
      "state": 3061,
      "##emaker": 3062,
      "least": 3063,
      "approximated": 3064,
      "actually": 3065,
      "saturation": 3066,
      "replacement": 3067,
      "stern": 3068,
      "##va": 3069,
      "alb": 3070,
      "##aryngeal": 3071,
      "pedicle": 3072,
      "immediately": 3073,
      "bp": 3074,
      "tac": 3075,
      "##ubic": 3076,
      "complain": 3077,
      "needs": 3078,
      "phal": 3079,
      "details": 3080,
      "murmurs": 3081,
      "##cent": 3082,
      "instructed": 3083,
      "##ompl": 3084,
      "##ocyt": 3085,
      "hyster": 3086,
      "drains": 3087,
      "##duction": 3088,
      "flexor": 3089,
      "imaging": 3090,
      "episode": 3091,
      "fluoroscopy": 3092,
      "bact": 3093,
      "ears": 3094,
      "##ister": 3095,
      "##usions": 3096,
      "##amic": 3097,
      "##illin": 3098,
      "dura": 3099,
      "inspection": 3100,
      "affect": 3101,
      "oblique": 3102,
      "immun": 3103,
      "success": 3104,
      "insulin": 3105,
      "reflux": 3106,
      "inferiorly": 3107,
      "saf": 3108,
      "loo": 3109,
      "involving": 3110,
      "obstructive": 3111,
      "29": 3112,
      "amounts": 3113,
      "allowed": 3114,
      "seems": 3115,
      "vitamin": 3116,
      "fraction": 3117,
      "ho": 3118,
      "ile": 3119,
      "recon": 3120,
      "carb": 3121,
      "superiorly": 3122,
      "measuring": 3123,
      "##terolateral": 3124,
      "osteophyt": 3125,
      "myocardial": 3126,
      "##rical": 3127,
      "towards": 3128,
      "##agia": 3129,
      "##angu": 3130,
      "reflected": 3131,
      "facet": 3132,
      "ovar": 3133,
      "##jor": 3134,
      "##asp": 3135,
      "##aces": 3136,
      "longus": 3137,
      "major": 3138,
      "cross": 3139,
      "say": 3140,
      "proper": 3141,
      "notic": 3142,
      "cau": 3143,
      "brother": 3144,
      "scheduled": 3145,
      "anxiety": 3146,
      "aut": 3147,
      "tri": 3148,
      "wed": 3149,
      "woman": 3150,
      "##ria": 3151,
      "##ank": 3152,
      "##odium": 3153,
      "intens": 3154,
      "sutured": 3155,
      "ejection": 3156,
      "cataract": 3157,
      "diver": 3158,
      "feeling": 3159,
      "specimens": 3160,
      "cultures": 3161,
      "school": 3162,
      "eth": 3163,
      "mit": 3164,
      "pap": 3165,
      "##iation": 3166,
      "nod": 3167,
      "##estinal": 3168,
      "agre": 3169,
      "knife": 3170,
      "appropriately": 3171,
      "feels": 3172,
      "noncont": 3173,
      "fragment": 3174,
      "fetal": 3175,
      "bar": 3176,
      "##icillin": 3177,
      "provided": 3178,
      "withdrawn": 3179,
      "orthop": 3180,
      "tachy": 3181,
      "dim": 3182,
      "self": 3183,
      "comb": 3184,
      "intrac": 3185,
      "spondyl": 3186,
      "examined": 3187,
      "flat": 3188,
      "fist": 3189,
      "mamm": 3190,
      "##hing": 3191,
      "##icit": 3192,
      "lea": 3193,
      "##ympan": 3194,
      "##avicular": 3195,
      "pacemaker": 3196,
      "04": 3197,
      "ec": 3198,
      "ta": 3199,
      "infant": 3200,
      "##rauma": 3201,
      "monitoring": 3202,
      "lumen": 3203,
      "divertic": 3204,
      "add": 3205,
      "##ogn": 3206,
      "obtain": 3207,
      "##ropathy": 3208,
      "inflated": 3209,
      "checked": 3210,
      "extensor": 3211,
      "sig": 3212,
      "trauma": 3213,
      "##ba": 3214,
      "appoint": 3215,
      "72": 3216,
      "rap": 3217,
      "align": 3218,
      "##ages": 3219,
      "endomet": 3220,
      "required": 3221,
      "ureteral": 3222,
      "foreign": 3223,
      "hemorrhage": 3224,
      "increasing": 3225,
      "afeb": 3226,
      "##abl": 3227,
      "dysp": 3228,
      "according": 3229,
      "fevers": 3230,
      "afebrile": 3231,
      "##orted": 3232,
      "250": 3233,
      "accident": 3234,
      "seizure": 3235,
      "##ominant": 3236,
      "lot": 3237,
      "tied": 3238,
      "##itations": 3239,
      "##idal": 3240,
      "##agulation": 3241,
      "##ape": 3242,
      "versus": 3243,
      "##known": 3244,
      "93": 3245,
      "aud": 3246,
      "sodium": 3247,
      "tympan": 3248,
      "unknown": 3249,
      "mobil": 3250,
      "03": 3251,
      "lith": 3252,
      "##uter": 3253,
      "refer": 3254,
      "nons": 3255,
      "coord": 3256,
      "continues": 3257,
      "thoracic": 3258,
      "##plo": 3259,
      "overall": 3260,
      "person": 3261,
      "bruits": 3262,
      "##iology": 3263,
      "antic": 3264,
      "symmetric": 3265,
      "##cardia": 3266,
      "36": 3267,
      "##ze": 3268,
      "##isone": 3269,
      "necess": 3270,
      "mildly": 3271,
      "gave": 3272,
      "osteo": 3273,
      "thorough": 3274,
      "##aque": 3275,
      "nour": 3276,
      "##ines": 3277,
      "##llitus": 3278,
      "neph": 3279,
      "mellitus": 3280,
      "attach": 3281,
      "measures": 3282,
      "prescription": 3283,
      "infiltrated": 3284,
      "nourished": 3285,
      "pus": 3286,
      "wide": 3287,
      "prep": 3288,
      "awake": 3289,
      "gastric": 3290,
      "simple": 3291,
      "separate": 3292,
      "worsening": 3293,
      "mitral": 3294,
      "##asian": 3295,
      "cauc": 3296,
      "enter": 3297,
      "radicul": 3298,
      "early": 3299,
      "tonsil": 3300,
      "caucasian": 3301,
      "nor": 3302,
      "##son": 3303,
      "##xx": 3304,
      "##ctor": 3305,
      "notes": 3306,
      "allergic": 3307,
      "hypertrophy": 3308,
      "pattern": 3309,
      "angiography": 3310,
      "09": 3311,
      "mood": 3312,
      "plane": 3313,
      "##ptic": 3314,
      "recor": 3315,
      "surround": 3316,
      "##intestinal": 3317,
      "ambul": 3318,
      "included": 3319,
      "joints": 3320,
      "legs": 3321,
      "measured": 3322,
      "sharply": 3323,
      "gastrointestinal": 3324,
      "views": 3325,
      "awakened": 3326,
      "mac": 3327,
      "vas": 3328,
      "chlor": 3329,
      "##mental": 3330,
      "decided": 3331,
      "angle": 3332,
      "rectum": 3333,
      "reduced": 3334,
      "keep": 3335,
      "##baum": 3336,
      "06": 3337,
      "l3": 3338,
      "ru": 3339,
      "##anx": 3340,
      "discontin": 3341,
      "overlying": 3342,
      "appendix": 3343,
      "phalanx": 3344,
      "48": 3345,
      "dos": 3346,
      "sure": 3347,
      "##iate": 3348,
      "caus": 3349,
      "event": 3350,
      "palate": 3351,
      "##time": 3352,
      "##ocol": 3353,
      "ess": 3354,
      "opening": 3355,
      "mcg": 3356,
      "##othyroid": 3357,
      "xyl": 3358,
      "##asia": 3359,
      "##acral": 3360,
      "##chan": 3361,
      "##hyd": 3362,
      "takes": 3363,
      "metzen": 3364,
      "evaluate": 3365,
      "speculum": 3366,
      "limb": 3367,
      "belie": 3368,
      "xylocaine": 3369,
      "metzenbaum": 3370,
      "##istended": 3371,
      "drin": 3372,
      "dissect": 3373,
      "palpated": 3374,
      "margin": 3375,
      "seizures": 3376,
      "nondistended": 3377,
      "fatig": 3378,
      "rupt": 3379,
      "x2": 3380,
      "held": 3381,
      "disposition": 3382,
      "artic": 3383,
      "veins": 3384,
      "crani": 3385,
      "fluoroscopic": 3386,
      "peritoneal": 3387,
      "asth": 3388,
      "gram": 3389,
      "tyl": 3390,
      "##ather": 3391,
      "touch": 3392,
      "##omies": 3393,
      "impair": 3394,
      "avail": 3395,
      "penis": 3396,
      "fairly": 3397,
      "tylenol": 3398,
      "date": 3399,
      "tric": 3400,
      "##function": 3401,
      "##icated": 3402,
      "leak": 3403,
      "meth": 3404,
      "bag": 3405,
      "wat": 3406,
      "pole": 3407,
      "advised": 3408,
      "circumfer": 3409,
      "marginal": 3410,
      "rashes": 3411,
      "exercise": 3412,
      "service": 3413,
      "answered": 3414,
      "nature": 3415,
      "ronge": 3416,
      "sum": 3417,
      "##get": 3418,
      "their": 3419,
      "##pping": 3420,
      "##ervative": 3421,
      "##anged": 3422,
      "lift": 3423,
      "discussion": 3424,
      "getting": 3425,
      "versed": 3426,
      "possibility": 3427,
      "extraocular": 3428,
      "laceration": 3429,
      "99": 3430,
      "##asm": 3431,
      "##osacral": 3432,
      "##ograft": 3433,
      "cement": 3434,
      "##orb": 3435,
      "took": 3436,
      "##term": 3437,
      "prof": 3438,
      "##oden": 3439,
      "arter": 3440,
      "many": 3441,
      "begin": 3442,
      "fatigue": 3443,
      "pie": 3444,
      "panc": 3445,
      "discectomy": 3446,
      "whether": 3447,
      "cardiop": 3448,
      "itself": 3449,
      "##rophic": 3450,
      "volume": 3451,
      "available": 3452,
      "##self": 3453,
      "##gia": 3454,
      "##rog": 3455,
      "##astric": 3456,
      "transp": 3457,
      "illicit": 3458,
      "particular": 3459,
      "hematuria": 3460,
      "became": 3461,
      "##ributory": 3462,
      "doc": 3463,
      "##lip": 3464,
      "##ging": 3465,
      "##atus": 3466,
      "##esoph": 3467,
      "glen": 3468,
      "anesthet": 3469,
      "proceeded": 3470,
      "patella": 3471,
      "asthma": 3472,
      "31": 3473,
      "pending": 3474,
      "sister": 3475,
      "trac": 3476,
      "##cious": 3477,
      "comes": 3478,
      "intubated": 3479,
      "inches": 3480,
      "amp": 3481,
      "noticed": 3482,
      "aug": 3483,
      "your": 3484,
      "##inated": 3485,
      "##arily": 3486,
      "##ostal": 3487,
      "walking": 3488,
      "##vertebral": 3489,
      "intermittent": 3490,
      "##esophageal": 3491,
      "interp": 3492,
      "monitored": 3493,
      "rotator": 3494,
      "reaction": 3495,
      "hydroce": 3496,
      "sigmoid": 3497,
      "##ison": 3498,
      "##ids": 3499,
      "##uls": 3500,
      "emg": 3501,
      "guid": 3502,
      "ligaments": 3503,
      "persistent": 3504,
      "ste": 3505,
      "comfort": 3506,
      "##endent": 3507,
      "working": 3508,
      "foramen": 3509,
      "pink": 3510,
      "##yle": 3511,
      "even": 3512,
      "establ": 3513,
      "possibly": 3514,
      "fut": 3515,
      "compar": 3516,
      "apnea": 3517,
      "options": 3518,
      "chemotherapy": 3519,
      "appointment": 3520,
      "radiculopathy": 3521,
      "future": 3522,
      "inr": 3523,
      "lev": 3524,
      "##izz": 3525,
      "##ubation": 3526,
      "ens": 3527,
      "subcl": 3528,
      "walk": 3529,
      "understood": 3530,
      "brach": 3531,
      "hysterectomy": 3532,
      "surrounding": 3533,
      "##rate": 3534,
      "##ii": 3535,
      "##ware": 3536,
      "##idemia": 3537,
      "interval": 3538,
      "##ertain": 3539,
      "agg": 3540,
      "syncop": 3541,
      "dyspnea": 3542,
      "cec": 3543,
      "ot": 3544,
      "##sh": 3545,
      "##oh": 3546,
      "attached": 3547,
      "pressures": 3548,
      "dysph": 3549,
      "wheezing": 3550,
      "summ": 3551,
      "bal": 3552,
      "list": 3553,
      "##uffic": 3554,
      "stone": 3555,
      "##changed": 3556,
      "##agitt": 3557,
      "##rong": 3558,
      "insuffic": 3559,
      "regurg": 3560,
      "smoke": 3561,
      "septal": 3562,
      "branches": 3563,
      "##agittal": 3564,
      "01": 3565,
      "give": 3566,
      "##rin": 3567,
      "##yst": 3568,
      "color": 3569,
      "ventricul": 3570,
      "relative": 3571,
      "dressings": 3572,
      "dental": 3573,
      "mand": 3574,
      "##utaneous": 3575,
      "incontin": 3576,
      "objective": 3577,
      "150": 3578,
      "##ocket": 3579,
      "digital": 3580,
      "dizz": 3581,
      "edge": 3582,
      "occl": 3583,
      "retractor": 3584,
      "indicated": 3585,
      "induced": 3586,
      "ascending": 3587,
      "regurgitation": 3588,
      "300": 3589,
      "yester": 3590,
      "caud": 3591,
      "decrease": 3592,
      "calib": 3593,
      "##angeal": 3594,
      "modified": 3595,
      "maxim": 3596,
      "congestion": 3597,
      "microscope": 3598,
      "narrowing": 3599,
      "##lipidemia": 3600,
      "yesterday": 3601,
      "hor": 3602,
      "sitting": 3603,
      "##led": 3604,
      "##ans": 3605,
      "##plasty": 3606,
      "medic": 3607,
      "diag": 3608,
      "conscious": 3609,
      "##avian": 3610,
      "nursing": 3611,
      "subclavian": 3612,
      "ann": 3613,
      "##ibular": 3614,
      "compartment": 3615,
      "cutting": 3616,
      "cannot": 3617,
      "halluc": 3618,
      "docum": 3619,
      "ja": 3620,
      "turb": 3621,
      "toes": 3622,
      "##omic": 3623,
      "diaph": 3624,
      "intersp": 3625,
      "enh": 3626,
      "insuff": 3627,
      "significantly": 3628,
      "tests": 3629,
      "wounds": 3630,
      "arthro": 3631,
      "packed": 3632,
      "maintained": 3633,
      "prophyl": 3634,
      "arterial": 3635,
      "##pec": 3636,
      "##enomegaly": 3637,
      "determ": 3638,
      "##ialysis": 3639,
      "##astoid": 3640,
      "subm": 3641,
      "decision": 3642,
      "2006": 3643,
      "espec": 3644,
      "protocol": 3645,
      "especially": 3646,
      "##lation": 3647,
      "##oke": 3648,
      "never": 3649,
      "adren": 3650,
      "feeding": 3651,
      "guard": 3652,
      "iii": 3653,
      "potential": 3654,
      "separated": 3655,
      "agreed": 3656,
      "##kes": 3657,
      "americ": 3658,
      "curved": 3659,
      "metastatic": 3660,
      "says": 3661,
      "cauteriz": 3662,
      "sagittal": 3663,
      "##oper": 3664,
      "station": 3665,
      "polyps": 3666,
      "##ietal": 3667,
      "groin": 3668,
      "remainder": 3669,
      "infarction": 3670,
      "incontinence": 3671,
      "om": 3672,
      "pocket": 3673,
      "##inate": 3674,
      "##illar": 3675,
      "clamps": 3676,
      "grand": 3677,
      "wedge": 3678,
      "interpret": 3679,
      "american": 3680,
      "jud": 3681,
      "atrium": 3682,
      "intubation": 3683,
      "##ipation": 3684,
      "retraction": 3685,
      "living": 3686,
      "deficits": 3687,
      "noncontributory": 3688,
      "alignment": 3689,
      "transported": 3690,
      "insufficiency": 3691,
      "37": 3692,
      "eating": 3693,
      "ic": 3694,
      "sam": 3695,
      "##ontal": 3696,
      "really": 3697,
      "##resis": 3698,
      "signal": 3699,
      "cerebral": 3700,
      "cholecystectomy": 3701,
      "sides": 3702,
      "##bol": 3703,
      "genital": 3704,
      "##ervation": 3705,
      "##axis": 3706,
      "##romegaly": 3707,
      "linear": 3708,
      "rotation": 3709,
      "cogn": 3710,
      "##aryng": 3711,
      "improve": 3712,
      "enlarg": 3713,
      "ordered": 3714,
      "rhin": 3715,
      "rubs": 3716,
      "obesity": 3717,
      "stopped": 3718,
      "urethra": 3719,
      "diagonal": 3720,
      "gest": 3721,
      "mat": 3722,
      "trig": 3723,
      "painful": 3724,
      "approach": 3725,
      "neuropathy": 3726,
      "apex": 3727,
      "sclerae": 3728,
      "lv": 3729,
      "sul": 3730,
      "##eh": 3731,
      "##less": 3732,
      "##for": 3733,
      "##icus": 3734,
      "sequ": 3735,
      "interc": 3736,
      "location": 3737,
      "herniated": 3738,
      "arthroscop": 3739,
      "forearm": 3740,
      "umbilicus": 3741,
      "34": 3742,
      "got": 3743,
      "##ely": 3744,
      "##yy": 3745,
      "##bal": 3746,
      "suic": 3747,
      "##irth": 3748,
      "adne": 3749,
      "shi": 3750,
      "genit": 3751,
      "mob": 3752,
      "elevation": 3753,
      "drugs": 3754,
      "thyromegaly": 3755,
      "pulled": 3756,
      "predn": 3757,
      "puncture": 3758,
      "fistula": 3759,
      "adnex": 3760,
      "##atous": 3761,
      "##urysm": 3762,
      "bluntly": 3763,
      "retrog": 3764,
      "slowly": 3765,
      "connected": 3766,
      "adrenal": 3767,
      "##mia": 3768,
      "endoscopy": 3769,
      "##psy": 3770,
      "basis": 3771,
      "hole": 3772,
      "though": 3773,
      "##aculum": 3774,
      "##ulitis": 3775,
      "##odies": 3776,
      "displac": 3777,
      "posterolateral": 3778,
      "##izontal": 3779,
      "irrit": 3780,
      "prominent": 3781,
      "horizontal": 3782,
      "##itution": 3783,
      "##ices": 3784,
      "impact": 3785,
      "eyel": 3786,
      "require": 3787,
      "patch": 3788,
      "loop": 3789,
      "rapid": 3790,
      "cod": 3791,
      "ane": 3792,
      "drink": 3793,
      "2009": 3794,
      "epig": 3795,
      "ventil": 3796,
      "occurred": 3797,
      "dysfunction": 3798,
      "##version": 3799,
      "retrograde": 3800,
      "##ng": 3801,
      "##mp": 3802,
      "##igure": 3803,
      "morph": 3804,
      "margins": 3805,
      "fast": 3806,
      "foss": 3807,
      "mel": 3808,
      "strong": 3809,
      "##eline": 3810,
      "##izations": 3811,
      "##ourinary": 3812,
      "dressed": 3813,
      "hypothyroid": 3814,
      "respons": 3815,
      "inflammation": 3816,
      "inflammatory": 3817,
      "dysphagia": 3818,
      "genitourinary": 3819,
      "aneurysm": 3820,
      "cig": 3821,
      "mi": 3822,
      "frequency": 3823,
      "necessary": 3824,
      "essentially": 3825,
      "55": 3826,
      "x3": 3827,
      "##rated": 3828,
      "##den": 3829,
      "cooperative": 3830,
      "direction": 3831,
      "adenoid": 3832,
      "demonstrates": 3833,
      "esophageal": 3834,
      "pacu": 3835,
      "combination": 3836,
      "bif": 3837,
      "fil": 3838,
      "filled": 3839,
      "##ty": 3840,
      "##eries": 3841,
      "##iring": 3842,
      "surgeries": 3843,
      "fiber": 3844,
      "attempted": 3845,
      "instrumentation": 3846,
      "bice": 3847,
      "kg": 3848,
      "ter": 3849,
      "wires": 3850,
      "##teric": 3851,
      "complaining": 3852,
      "functional": 3853,
      "thickness": 3854,
      "collateral": 3855,
      "nucleus": 3856,
      "summary": 3857,
      "prednisone": 3858,
      "biceps": 3859,
      "figure": 3860,
      "pan": 3861,
      "plus": 3862,
      "median": 3863,
      "repe": 3864,
      "##ussion": 3865,
      "hospitalization": 3866,
      "starting": 3867,
      "##arett": 3868,
      "hands": 3869,
      "prolong": 3870,
      "involved": 3871,
      "thickening": 3872,
      "tympanic": 3873,
      "cecum": 3874,
      "cigarett": 3875,
      "##ipp": 3876,
      "atrophy": 3877,
      "cleared": 3878,
      "fibroid": 3879,
      "reconstruction": 3880,
      "thoroughly": 3881,
      "02": 3882,
      "jug": 3883,
      "tension": 3884,
      "veh": 3885,
      "set": 3886,
      "cause": 3887,
      "vagina": 3888,
      "mucosal": 3889,
      "osteoarth": 3890,
      "hypothyroidism": 3891,
      "38": 3892,
      "bic": 3893,
      "cn": 3894,
      "lit": 3895,
      "pet": 3896,
      "##etite": 3897,
      "appetite": 3898,
      "afric": 3899,
      "butt": 3900,
      "co2": 3901,
      "##umbil": 3902,
      "cleaned": 3903,
      "african": 3904,
      "nit": 3905,
      "vac": 3906,
      "couple": 3907,
      "transfer": 3908,
      "calor": 3909,
      "malign": 3910,
      "percutaneous": 3911,
      "debrid": 3912,
      "spondylosis": 3913,
      "ju": 3914,
      "##entation": 3915,
      "##ules": 3916,
      "##chi": 3917,
      "sett": 3918,
      "meds": 3919,
      "##ipital": 3920,
      "conservative": 3921,
      "para": 3922,
      "locking": 3923,
      "knees": 3924,
      "palpitations": 3925,
      "##odyn": 3926,
      "induction": 3927,
      "##ographic": 3928,
      "##umbilical": 3929,
      "hx": 3930,
      "o2": 3931,
      "##to": 3932,
      "##erus": 3933,
      "medi": 3934,
      "subst": 3935,
      "acid": 3936,
      "##angi": 3937,
      "liqu": 3938,
      "sterilely": 3939,
      "consisting": 3940,
      "congestive": 3941,
      "encoun": 3942,
      "different": 3943,
      "cognitive": 3944,
      "debridement": 3945,
      "best": 3946,
      "birth": 3947,
      "somet": 3948,
      "##vt": 3949,
      "##raw": 3950,
      "##stomy": 3951,
      "##ectoral": 3952,
      "devi": 3953,
      "##peritone": 3954,
      "changed": 3955,
      "requiring": 3956,
      "commun": 3957,
      "magn": 3958,
      "confirm": 3959,
      "young": 3960,
      "wave": 3961,
      "origin": 3962,
      "caliber": 3963,
      "81": 3964,
      "gut": 3965,
      "sex": 3966,
      "##ety": 3967,
      "planned": 3968,
      "##rown": 3969,
      "menisc": 3970,
      "umbilical": 3971,
      "lasix": 3972,
      "swallowing": 3973,
      "stimulation": 3974,
      "identify": 3975,
      "trem": 3976,
      "doctor": 3977,
      "femur": 3978,
      "careful": 3979,
      "occasionally": 3980,
      "ovary": 3981,
      "padded": 3982,
      "orbital": 3983,
      "##ployed": 3984,
      "rim": 3985,
      "wbc": 3986,
      "##hab": 3987,
      "##12": 3988,
      "##atal": 3989,
      "rehab": 3990,
      "##urc": 3991,
      "cond": 3992,
      "removing": 3993,
      "colle": 3994,
      "specific": 3995,
      "##ragm": 3996,
      "pericardial": 3997,
      "complains": 3998,
      "##ux": 3999,
      "exud": 4000,
      "##ching": 4001,
      "perman": 4002,
      "image": 4003,
      "repres": 4004,
      "outside": 4005,
      "ports": 4006,
      "tested": 4007,
      "bleed": 4008,
      "fascial": 4009,
      "accompl": 4010,
      "cystoscopy": 4011,
      "defin": 4012,
      "injuries": 4013,
      "organomegaly": 4014,
      "chloride": 4015,
      "interspace": 4016,
      "cauterized": 4017,
      "fossa": 4018,
      "vehicle": 4019,
      "opp": 4020,
      "##iac": 4021,
      "##ospl": 4022,
      "##aps": 4023,
      "flank": 4024,
      "2003": 4025,
      "cold": 4026,
      "testis": 4027,
      "fully": 4028,
      "loose": 4029,
      "appendectomy": 4030,
      "hepatospl": 4031,
      "adjacent": 4032,
      "gallops": 4033,
      "jugular": 4034,
      "hepatosplenomegaly": 4035,
      "68": 4036,
      "mig": 4037,
      "pds": 4038,
      "##itory": 4039,
      "##arv": 4040,
      "##olus": 4041,
      "plaque": 4042,
      "hyperlipidemia": 4043,
      "probe": 4044,
      "tibia": 4045,
      "provide": 4046,
      "holding": 4047,
      "splint": 4048,
      "suspic": 4049,
      "rongeur": 4050,
      "65": 4051,
      "phen": 4052,
      "rib": 4053,
      "xii": 4054,
      "##esterol": 4055,
      "evac": 4056,
      "##aphen": 4057,
      "symmetrical": 4058,
      "##rotum": 4059,
      "cholesterol": 4060,
      "encountered": 4061,
      "fine": 4062,
      "pump": 4063,
      "rhe": 4064,
      "water": 4065,
      "##sa": 4066,
      "##ged": 4067,
      "##chym": 4068,
      "sele": 4069,
      "subd": 4070,
      "eng": 4071,
      "moved": 4072,
      "worked": 4073,
      "sinuses": 4074,
      "benefit": 4075,
      "finally": 4076,
      "called": 4077,
      "constipation": 4078,
      "prescrib": 4079,
      "wheezes": 4080,
      "drops": 4081,
      "prepared": 4082,
      "tachycardia": 4083,
      "anesthetized": 4084,
      "guidance": 4085,
      "dizziness": 4086,
      "prolonged": 4087,
      "rheum": 4088,
      "94": 4089,
      "certain": 4090,
      "pig": 4091,
      "pron": 4092,
      "##iasis": 4093,
      "##vision": 4094,
      "##ested": 4095,
      "##thing": 4096,
      "intr": 4097,
      "sple": 4098,
      "recall": 4099,
      "transplant": 4100,
      "ide": 4101,
      "hemostat": 4102,
      "failed": 4103,
      "retractors": 4104,
      "discontinu": 4105,
      "dement": 4106,
      "##icles": 4107,
      "##inalysis": 4108,
      "evening": 4109,
      "postp": 4110,
      "showing": 4111,
      "indep": 4112,
      "amb": 4113,
      "preoperatively": 4114,
      "embol": 4115,
      "urinalysis": 4116,
      "abnormality": 4117,
      "tablet": 4118,
      "angioplasty": 4119,
      "bandage": 4120,
      "requested": 4121,
      "enlargement": 4122,
      "repeated": 4123,
      "spleen": 4124,
      "fill": 4125,
      "lost": 4126,
      "##rotal": 4127,
      "neut": 4128,
      "hemodyn": 4129,
      "transf": 4130,
      "dysuria": 4131,
      "verified": 4132,
      "neurovascular": 4133,
      "percussion": 4134,
      "hardware": 4135,
      "established": 4136,
      "##itutional": 4137,
      "##mic": 4138,
      "alread": 4139,
      "happ": 4140,
      "roll": 4141,
      "located": 4142,
      "hemostatic": 4143,
      "sweat": 4144,
      "intraocular": 4145,
      "prone": 4146,
      "mucous": 4147,
      "axial": 4148,
      "bronchoscope": 4149,
      "##verted": 4150,
      "behavi": 4151,
      "maximum": 4152,
      "already": 4153,
      "iron": 4154,
      "xxx": 4155,
      "##uk": 4156,
      "##ences": 4157,
      "##uted": 4158,
      "arch": 4159,
      "##hesis": 4160,
      "contour": 4161,
      "##aped": 4162,
      "parietal": 4163,
      "cyc": 4164,
      "constitutional": 4165,
      "immediate": 4166,
      "code": 4167,
      "osteoarthritis": 4168,
      "##aphenous": 4169,
      "squ": 4170,
      "##ohyd": 4171,
      "plat": 4172,
      "neural": 4173,
      "2005": 4174,
      "125": 4175,
      "fourth": 4176,
      "bunion": 4177,
      "safety": 4178,
      "matt": 4179,
      "od": 4180,
      "vena": 4181,
      "too": 4182,
      "##amine": 4183,
      "##une": 4184,
      "elected": 4185,
      "120": 4186,
      "myel": 4187,
      "fractures": 4188,
      "series": 4189,
      "duoden": 4190,
      "stitches": 4191,
      "patellar": 4192,
      "experienced": 4193,
      "auditory": 4194,
      "accomplished": 4195,
      "cru": 4196,
      "pit": 4197,
      "##osed": 4198,
      "step": 4199,
      "strict": 4200,
      "##ends": 4201,
      "prevent": 4202,
      "scale": 4203,
      "##ivity": 4204,
      "seconds": 4205,
      "moderately": 4206,
      "frequent": 4207,
      "perforation": 4208,
      "conjunctivae": 4209,
      "lithotomy": 4210,
      "enhanc": 4211,
      "permanent": 4212,
      "ting": 4213,
      "##etry": 4214,
      "##neath": 4215,
      "underneath": 4216,
      "december": 4217,
      "paral": 4218,
      "diast": 4219,
      "##opharynx": 4220,
      "tablets": 4221,
      "thrombosis": 4222,
      "obese": 4223,
      "dermat": 4224,
      "purul": 4225,
      "analysis": 4226,
      "records": 4227,
      "nice": 4228,
      "sem": 4229,
      "##itary": 4230,
      "##entan": 4231,
      "##otomies": 4232,
      "concl": 4233,
      "concent": 4234,
      "labs": 4235,
      "reportedly": 4236,
      "saphenous": 4237,
      "traction": 4238,
      "##edic": 4239,
      "isol": 4240,
      "difficulties": 4241,
      "198": 4242,
      "smooth": 4243,
      "dilat": 4244,
      "cortical": 4245,
      "syncope": 4246,
      "occlusion": 4247,
      "##ipped": 4248,
      "##occ": 4249,
      "hair": 4250,
      "contents": 4251,
      "cava": 4252,
      "rotated": 4253,
      "injections": 4254,
      "acet": 4255,
      "prophylaxis": 4256,
      "genitalia": 4257,
      "bac": 4258,
      "bodies": 4259,
      "dvt": 4260,
      "l1": 4261,
      "purs": 4262,
      "heard": 4263,
      "##uricular": 4264,
      "##luded": 4265,
      "entry": 4266,
      "repaired": 4267,
      "hepatitis": 4268,
      "articular": 4269,
      "##ipple": 4270,
      "fentan": 4271,
      "qual": 4272,
      "tsh": 4273,
      "##eps": 4274,
      "##pite": 4275,
      "##duc": 4276,
      "thus": 4277,
      "come": 4278,
      "arms": 4279,
      "allograft": 4280,
      "##aged": 4281,
      "despite": 4282,
      "anti": 4283,
      "refill": 4284,
      "veress": 4285,
      "observed": 4286,
      "platelets": 4287,
      "diaphragm": 4288,
      "selective": 4289,
      "dementia": 4290,
      "fentanyl": 4291,
      "cp": 4292,
      "drawn": 4293,
      "might": 4294,
      "##ases": 4295,
      "##rex": 4296,
      "##isin": 4297,
      "##arb": 4298,
      "##opt": 4299,
      "##opril": 4300,
      "##hthal": 4301,
      "respect": 4302,
      "surge": 4303,
      "flaps": 4304,
      "hallux": 4305,
      "ovarian": 4306,
      "impacted": 4307,
      "cigarettes": 4308,
      "rheumat": 4309,
      "62": 4310,
      "fro": 4311,
      "lat": 4312,
      "oun": 4313,
      "pa": 4314,
      "py": 4315,
      "vo": 4316,
      "##sc": 4317,
      "conduction": 4318,
      "##itten": 4319,
      "boy": 4320,
      "primarily": 4321,
      "##going": 4322,
      "relatively": 4323,
      "bifurc": 4324,
      "41": 4325,
      "84": 4326,
      "qd": 4327,
      "sust": 4328,
      "##ture": 4329,
      "##mor": 4330,
      "##ales": 4331,
      "exert": 4332,
      "preserved": 4333,
      "complained": 4334,
      "ampl": 4335,
      "works": 4336,
      "portal": 4337,
      "cyt": 4338,
      "esmar": 4339,
      "grav": 4340,
      "herniation": 4341,
      "pediatric": 4342,
      "freed": 4343,
      "adjust": 4344,
      "maxillary": 4345,
      "sweats": 4346,
      "esmarch": 4347,
      "hr": 4348,
      "tms": 4349,
      "##cler": 4350,
      "##ffer": 4351,
      "##omn": 4352,
      "produ": 4353,
      "##plate": 4354,
      "resist": 4355,
      "generalized": 4356,
      "##ommod": 4357,
      "accommod": 4358,
      "diabetic": 4359,
      "probable": 4360,
      "fold": 4361,
      "impairment": 4362,
      "mandible": 4363,
      "mediast": 4364,
      "51": 4365,
      "mil": 4366,
      "son": 4367,
      "ves": 4368,
      "##loc": 4369,
      "foramin": 4370,
      "##odin": 4371,
      "integ": 4372,
      "clips": 4373,
      "scrotal": 4374,
      "contract": 4375,
      "corne": 4376,
      "vicodin": 4377,
      "suprap": 4378,
      "glob": 4379,
      "baseline": 4380,
      "kerat": 4381,
      "nuclear": 4382,
      "ischemic": 4383,
      "dominant": 4384,
      "lisin": 4385,
      "mill": 4386,
      "##sangu": 4387,
      "exsangu": 4388,
      "##ottic": 4389,
      "leuk": 4390,
      "##verage": 4391,
      "couns": 4392,
      "quit": 4393,
      "##ribution": 4394,
      "phot": 4395,
      "bedtime": 4396,
      "seemed": 4397,
      "concerns": 4398,
      "delay": 4399,
      "##ysmal": 4400,
      "lisinopril": 4401,
      "counsel": 4402,
      "burs": 4403,
      "rig": 4404,
      "##la": 4405,
      "##ero": 4406,
      "##aco": 4407,
      "nec": 4408,
      "alt": 4409,
      "soon": 4410,
      "resting": 4411,
      "##metry": 4412,
      "delt": 4413,
      "endocrine": 4414,
      "pmh": 4415,
      "duodenum": 4416,
      "exertion": 4417,
      "78": 4418,
      "hct": 4419,
      "rr": 4420,
      "##ping": 4421,
      "##ense": 4422,
      "##rof": 4423,
      "##apular": 4424,
      "clearly": 4425,
      "lumbosacral": 4426,
      "verbal": 4427,
      "etiology": 4428,
      "title": 4429,
      "aggressive": 4430,
      "grow": 4431,
      "oint": 4432,
      "##ject": 4433,
      "##osph": 4434,
      "covered": 4435,
      "carbohyd": 4436,
      "ointment": 4437,
      "400": 4438,
      "don": 4439,
      "eeg": 4440,
      "jv": 4441,
      "name": 4442,
      "rales": 4443,
      "##rid": 4444,
      "##poral": 4445,
      "##rectomy": 4446,
      "##ura": 4447,
      "##urse": 4448,
      "beats": 4449,
      "##ively": 4450,
      "subt": 4451,
      "obtaining": 4452,
      "123": 4453,
      "break": 4454,
      "output": 4455,
      "perfusion": 4456,
      "replaced": 4457,
      "capillary": 4458,
      "believe": 4459,
      "nipple": 4460,
      "oxim": 4461,
      "ptt": 4462,
      "tried": 4463,
      "wind": 4464,
      "##tail": 4465,
      "##ched": 4466,
      "therap": 4467,
      "##rous": 4468,
      "##lycer": 4469,
      "postop": 4470,
      "aspirated": 4471,
      "maternal": 4472,
      "mixture": 4473,
      "cryst": 4474,
      "ahead": 4475,
      "t2": 4476,
      "vel": 4477,
      "##iding": 4478,
      "##umed": 4479,
      "plavi": 4480,
      "neopl": 4481,
      "abdu": 4482,
      "minim": 4483,
      "includes": 4484,
      "gastroesophageal": 4485,
      "absent": 4486,
      "factors": 4487,
      "325": 4488,
      "mattress": 4489,
      "plavix": 4490,
      "33": 4491,
      "nurse": 4492,
      "##inations": 4493,
      "##rest": 4494,
      "##adol": 4495,
      "##opian": 4496,
      "stem": 4497,
      "##esthesia": 4498,
      "##ranial": 4499,
      "meticul": 4500,
      "portions": 4501,
      "fallopian": 4502,
      "written": 4503,
      "membrane": 4504,
      "##itude": 4505,
      "gauze": 4506,
      "beginning": 4507,
      "tingling": 4508,
      "window": 4509,
      "meticulous": 4510,
      "a1": 4511,
      "cand": 4512,
      "fh": 4513,
      "hiat": 4514,
      "nam": 4515,
      "##mm": 4516,
      "inhal": 4517,
      "##ulmonary": 4518,
      "##ady": 4519,
      "##iable": 4520,
      "progn": 4521,
      "##amer": 4522,
      "resect": 4523,
      "signed": 4524,
      "compre": 4525,
      "symptomatic": 4526,
      "breasts": 4527,
      "copd": 4528,
      "tempor": 4529,
      "directly": 4530,
      "etc": 4531,
      "doub": 4532,
      "cephalic": 4533,
      "curv": 4534,
      "clots": 4535,
      "laid": 4536,
      "successful": 4537,
      "orthopedic": 4538,
      "drinks": 4539,
      "documented": 4540,
      "64": 4541,
      "lying": 4542,
      "making": 4543,
      "##ek": 4544,
      "##uck": 4545,
      "##cm": 4546,
      "##eness": 4547,
      "anch": 4548,
      "##osition": 4549,
      "##ida": 4550,
      "##ricular": 4551,
      "urg": 4552,
      "points": 4553,
      "mayo": 4554,
      "deflated": 4555,
      "penicillin": 4556,
      "observation": 4557,
      "fundus": 4558,
      "albu": 4559,
      "life": 4560,
      "pou": 4561,
      "##onchi": 4562,
      "##alangeal": 4563,
      "##itrac": 4564,
      "##lectomy": 4565,
      "##omed": 4566,
      "heav": 4567,
      "##umin": 4568,
      "##seous": 4569,
      "ophthal": 4570,
      "##ophalangeal": 4571,
      "elevator": 4572,
      "##uspid": 4573,
      "rhonchi": 4574,
      "periosteum": 4575,
      "osteophytes": 4576,
      "profile": 4577,
      "bacitrac": 4578,
      "bacitracin": 4579,
      "ell": 4580,
      "##resp": 4581,
      "##moker": 4582,
      "approximate": 4583,
      "subsequent": 4584,
      "standing": 4585,
      "serial": 4586,
      "recurrence": 4587,
      "bulk": 4588,
      "mixed": 4589,
      "mobilized": 4590,
      "nonsmoker": 4591,
      "pancreat": 4592,
      "meniscus": 4593,
      "suspicious": 4594,
      "prescribed": 4595,
      "diastolic": 4596,
      "crystall": 4597,
      "##enic": 4598,
      "asym": 4599,
      "endoscope": 4600,
      "restrict": 4601,
      "metatarsophalangeal": 4602,
      "##hens": 4603,
      "steroid": 4604,
      "laminectomy": 4605,
      "periosteal": 4606,
      "ensure": 4607,
      "setting": 4608,
      "card": 4609,
      "cva": 4610,
      "##pi": 4611,
      "##heck": 4612,
      "##erous": 4613,
      "suffer": 4614,
      "recheck": 4615,
      "distribution": 4616,
      "soak": 4617,
      "2004": 4618,
      "dysarth": 4619,
      "effort": 4620,
      "cannulated": 4621,
      "concerned": 4622,
      "implantation": 4623,
      "instilled": 4624,
      "causing": 4625,
      "sulf": 4626,
      "eyelid": 4627,
      "july": 4628,
      "cruc": 4629,
      "purulent": 4630,
      "surgeon": 4631,
      "veloc": 4632,
      "cast": 4633,
      "##lix": 4634,
      "##ger": 4635,
      "##ault": 4636,
      "##oe": 4637,
      "those": 4638,
      "##chol": 4639,
      "sud": 4640,
      "chond": 4641,
      "fell": 4642,
      "testicle": 4643,
      "dilator": 4644,
      "respond": 4645,
      "concern": 4646,
      "cerebell": 4647,
      "excessive": 4648,
      "comfortable": 4649,
      "otitis": 4650,
      "##peritoneal": 4651,
      "subdural": 4652,
      "frozen": 4653,
      "pouch": 4654,
      "dd": 4655,
      "eg": 4656,
      "vocal": 4657,
      "ye": 4658,
      "##bear": 4659,
      "##ask": 4660,
      "##iaz": 4661,
      "##cell": 4662,
      "##iff": 4663,
      "placent": 4664,
      "extraction": 4665,
      "enough": 4666,
      "##othor": 4667,
      "measure": 4668,
      "intensive": 4669,
      "albuterol": 4670,
      "67": 4671,
      "dialysis": 4672,
      "nail": 4673,
      "##raumbilical": 4674,
      "arri": 4675,
      "score": 4676,
      "retin": 4677,
      "imping": 4678,
      "2000": 4679,
      "calf": 4680,
      "relie": 4681,
      "relief": 4682,
      "gets": 4683,
      "pneumatic": 4684,
      "interpretation": 4685,
      "suicidal": 4686,
      "fhx": 4687,
      "sudden": 4688,
      "43": 4689,
      "ces": 4690,
      "dent": 4691,
      "eom": 4692,
      "##rotic": 4693,
      "##lear": 4694,
      "##iral": 4695,
      "media": 4696,
      "##illa": 4697,
      "coronal": 4698,
      "beta": 4699,
      "##ovitis": 4700,
      "handed": 4701,
      "capsul": 4702,
      "administ": 4703,
      "tonsillar": 4704,
      "drilled": 4705,
      "ischemia": 4706,
      "bacter": 4707,
      "rupture": 4708,
      "particularly": 4709,
      "oximetry": 4710,
      "placenta": 4711,
      "larg": 4712,
      "##hib": 4713,
      "##legia": 4714,
      "perine": 4715,
      "spra": 4716,
      "deepened": 4717,
      "split": 4718,
      "understanding": 4719,
      "antico": 4720,
      "brachial": 4721,
      "icu": 4722,
      "pigtail": 4723,
      "cruciate": 4724,
      "00": 4725,
      "crit": 4726,
      "gently": 4727,
      "sound": 4728,
      "toget": 4729,
      "##uration": 4730,
      "stre": 4731,
      "##chond": 4732,
      "herself": 4733,
      "##elds": 4734,
      "coming": 4735,
      "hab": 4736,
      "obtuse": 4737,
      "mechan": 4738,
      "##arean": 4739,
      "hemorrhoids": 4740,
      "bulging": 4741,
      "wanted": 4742,
      "represent": 4743,
      "discontinued": 4744,
      "quality": 4745,
      "corneal": 4746,
      "cesarean": 4747,
      "together": 4748,
      "74": 4749,
      "gang": 4750,
      "jan": 4751,
      "mane": 4752,
      "pectoral": 4753,
      "reb": 4754,
      "##ters": 4755,
      "athe": 4756,
      "shx": 4757,
      "##ysma": 4758,
      "tuberc": 4759,
      "systemic": 4760,
      "##elvic": 4761,
      "clinically": 4762,
      "fingers": 4763,
      "markedly": 4764,
      "percent": 4765,
      "gradient": 4766,
      "understands": 4767,
      "effects": 4768,
      "dimin": 4769,
      "craniotomy": 4770,
      "compared": 4771,
      "liters": 4772,
      "platysma": 4773,
      "comprehens": 4774,
      "maneu": 4775,
      "91": 4776,
      "far": 4777,
      "hiv": 4778,
      "##ises": 4779,
      "##icteric": 4780,
      "stiff": 4781,
      "##imeter": 4782,
      "##ubitus": 4783,
      "decubitus": 4784,
      "lymphatic": 4785,
      "##oxin": 4786,
      "##ances": 4787,
      "laparotomy": 4788,
      "ulcers": 4789,
      "topical": 4790,
      "encourag": 4791,
      "stabil": 4792,
      "nodules": 4793,
      "trace": 4794,
      "medicine": 4795,
      "insufflated": 4796,
      "prognosis": 4797,
      "42": 4798,
      "76": 4799,
      "aid": 4800,
      "gas": 4801,
      "laryngeal": 4802,
      "##uated": 4803,
      "tomor": 4804,
      "##acrom": 4805,
      "##apse": 4806,
      "underg": 4807,
      "exploration": 4808,
      "fields": 4809,
      "penile": 4810,
      "progress": 4811,
      "recommendation": 4812,
      "basal": 4813,
      "fixed": 4814,
      "suggestive": 4815,
      "intracranial": 4816,
      "responses": 4817,
      "tomorrow": 4818,
      "57": 4819,
      "##phys": 4820,
      "revision": 4821,
      "epic": 4822,
      "identification": 4823,
      "partially": 4824,
      "adequately": 4825,
      "holes": 4826,
      "maintain": 4827,
      "crack": 4828,
      "kerlix": 4829,
      "shaft": 4830,
      "original": 4831,
      "preparation": 4832,
      "tricuspid": 4833,
      "intercostal": 4834,
      "44": 4835,
      "dop": 4836,
      "june": 4837,
      "##lavicular": 4838,
      "heel": 4839,
      "##ocle": 4840,
      "shape": 4841,
      "infusion": 4842,
      "dependent": 4843,
      "drained": 4844,
      "correction": 4845,
      "bronchoscopy": 4846,
      "digit": 4847,
      "describes": 4848,
      "groove": 4849,
      "attachments": 4850,
      "displaced": 4851,
      "soaked": 4852,
      "fit": 4853,
      "job": 4854,
      "tor": 4855,
      "sore": 4856,
      "manip": 4857,
      "treatments": 4858,
      "phaco": 4859,
      "look": 4860,
      "doses": 4861,
      "guarding": 4862,
      "morphine": 4863,
      "jvd": 4864,
      "candid": 4865,
      "##bearing": 4866,
      "39": 4867,
      "laryng": 4868,
      "vib": 4869,
      "##af": 4870,
      "##most": 4871,
      "##ycin": 4872,
      "##por": 4873,
      "##ulate": 4874,
      "##ush": 4875,
      "##ote": 4876,
      "##emporal": 4877,
      "preop": 4878,
      "cla": 4879,
      "normally": 4880,
      "distention": 4881,
      "endoscopic": 4882,
      "minor": 4883,
      "metop": 4884,
      "conditions": 4885,
      "educ": 4886,
      "hypertrophic": 4887,
      "pharynx": 4888,
      "tracheostomy": 4889,
      "roots": 4890,
      "lamina": 4891,
      "melena": 4892,
      "rigid": 4893,
      "crease": 4894,
      "pp": 4895,
      "sized": 4896,
      "##idom": 4897,
      "##opelvic": 4898,
      "acce": 4899,
      "neurom": 4900,
      "catheters": 4901,
      "radical": 4902,
      "bile": 4903,
      "facility": 4904,
      "personal": 4905,
      "stools": 4906,
      "consulted": 4907,
      "behind": 4908,
      "##uterine": 4909,
      "hemodynamic": 4910,
      "sustained": 4911,
      "administration": 4912,
      "rebound": 4913,
      "encouraged": 4914,
      "56": 4915,
      "aph": 4916,
      "ice": 4917,
      "pow": 4918,
      "revers": 4919,
      "##opia": 4920,
      "stones": 4921,
      "dex": 4922,
      "almost": 4923,
      "incident": 4924,
      "spinous": 4925,
      "index": 4926,
      "coag": 4927,
      "parasp": 4928,
      "expose": 4929,
      "calcification": 4930,
      "solid": 4931,
      "##ocele": 4932,
      "true": 4933,
      "instability": 4934,
      "create": 4935,
      "cortex": 4936,
      "oment": 4937,
      "##raz": 4938,
      "forward": 4939,
      "adher": 4940,
      "distended": 4941,
      "visco": 4942,
      "team": 4943,
      "supr": 4944,
      "intrauterine": 4945,
      "multiv": 4946,
      "specif": 4947,
      "##orrhea": 4948,
      "ankles": 4949,
      "digits": 4950,
      "cephal": 4951,
      "##osteal": 4952,
      "laser": 4953,
      "shift": 4954,
      "doubly": 4955,
      "janu": 4956,
      "undergone": 4957,
      "59": 4958,
      "66": 4959,
      "69": 4960,
      "dict": 4961,
      "foc": 4962,
      "tin": 4963,
      "vide": 4964,
      "wid": 4965,
      "##rim": 4966,
      "##onate": 4967,
      "tox": 4968,
      "##ript": 4969,
      "notch": 4970,
      "scrotum": 4971,
      "distraction": 4972,
      "mean": 4973,
      "coagulation": 4974,
      "assistance": 4975,
      "anatomic": 4976,
      "cardiopulmonary": 4977,
      "matter": 4978,
      "heavy": 4979,
      "burn": 4980,
      "tet": 4981,
      "##sed": 4982,
      "##elect": 4983,
      "##ups": 4984,
      "##atin": 4985,
      "anter": 4986,
      "##ulosis": 4987,
      "stap": 4988,
      "##ipro": 4989,
      "##actic": 4990,
      "contraction": 4991,
      "infected": 4992,
      "wheel": 4993,
      "secret": 4994,
      "phosph": 4995,
      "aware": 4996,
      "infections": 4997,
      "healed": 4998,
      "circumc": 4999,
      "sugar": 5000,
      "tonsils": 5001,
      "stapler": 5002,
      "bulb": 5003,
      "hallucinations": 5004,
      "arthroplasty": 5005,
      "isolated": 5006,
      "dysarthria": 5007,
      "born": 5008,
      "dam": 5009,
      "war": 5010,
      "##te": 5011,
      "##lottic": 5012,
      "##ye": 5013,
      "cheek": 5014,
      "desires": 5015,
      "planning": 5016,
      "find": 5017,
      "allergy": 5018,
      "hypere": 5019,
      "gradually": 5020,
      "trying": 5021,
      "piece": 5022,
      "collection": 5023,
      "ounces": 5024,
      "86": 5025,
      "lack": 5026,
      "vest": 5027,
      "vault": 5028,
      "##vac": 5029,
      "##vem": 5030,
      "##usive": 5031,
      "stain": 5032,
      "unchanged": 5033,
      "feb": 5034,
      "admits": 5035,
      "nasopharynx": 5036,
      "program": 5037,
      "curette": 5038,
      "yellow": 5039,
      "61": 5040,
      "63": 5041,
      "cos": 5042,
      "gre": 5043,
      "pill": 5044,
      "##rose": 5045,
      "exacer": 5046,
      "adult": 5047,
      "uns": 5048,
      "events": 5049,
      "marrow": 5050,
      "postoperatively": 5051,
      "protected": 5052,
      "earli": 5053,
      "##aves": 5054,
      "debris": 5055,
      "raised": 5056,
      "sternocle": 5057,
      "exacerb": 5058,
      "85": 5059,
      "dried": 5060,
      "rather": 5061,
      "##arcinoma": 5062,
      "novem": 5063,
      "##ocarcinoma": 5064,
      "protect": 5065,
      "surfaces": 5066,
      "components": 5067,
      "adnexal": 5068,
      "condyle": 5069,
      "filling": 5070,
      "suprapubic": 5071,
      "november": 5072,
      "52": 5073,
      "camer": 5074,
      "dl": 5075,
      "l2": 5076,
      "##fl": 5077,
      "##here": 5078,
      "##eds": 5079,
      "##itivity": 5080,
      "##rapped": 5081,
      "seal": 5082,
      "##ibond": 5083,
      "postan": 5084,
      "partic": 5085,
      "goal": 5086,
      "ethibond": 5087,
      "glenoid": 5088,
      "liquid": 5089,
      "exudate": 5090,
      "conclusion": 5091,
      "##idomastoid": 5092,
      "omentum": 5093,
      "earlier": 5094,
      "sternocleidomastoid": 5095,
      "camera": 5096,
      "bid": 5097,
      "jack": 5098,
      "##hex": 5099,
      "ance": 5100,
      "##ann": 5101,
      "exact": 5102,
      "deferred": 5103,
      "coun": 5104,
      "complication": 5105,
      "extremely": 5106,
      "screening": 5107,
      "speed": 5108,
      "staff": 5109,
      "quadrants": 5110,
      "debrided": 5111,
      "t12": 5112,
      "differential": 5113,
      "ileum": 5114,
      "fragments": 5115,
      "epigastric": 5116,
      "paraspinal": 5117,
      "ancef": 5118,
      "bund": 5119,
      "cup": 5120,
      "ect": 5121,
      "harv": 5122,
      "oct": 5123,
      "##asal": 5124,
      "##otome": 5125,
      "placing": 5126,
      "pains": 5127,
      "unfort": 5128,
      "firm": 5129,
      "occipital": 5130,
      "development": 5131,
      "cellulitis": 5132,
      "serum": 5133,
      "become": 5134,
      "anatomy": 5135,
      "endometrial": 5136,
      "sample": 5137,
      "tremor": 5138,
      "pronator": 5139,
      "##acromial": 5140,
      "aphasia": 5141,
      "unfortun": 5142,
      "58": 5143,
      "fres": 5144,
      "lav": 5145,
      "##iary": 5146,
      "##oam": 5147,
      "##itamin": 5148,
      "##ithiasis": 5149,
      "##amp": 5150,
      "##amous": 5151,
      "##chs": 5152,
      "intram": 5153,
      "##ouse": 5154,
      "anything": 5155,
      "##ensity": 5156,
      "dense": 5157,
      "##obic": 5158,
      "dural": 5159,
      "glass": 5160,
      "expected": 5161,
      "dilation": 5162,
      "healing": 5163,
      "vertical": 5164,
      "canals": 5165,
      "coughing": 5166,
      "malle": 5167,
      "broad": 5168,
      "kerr": 5169,
      "tenaculum": 5170,
      "lady": 5171,
      "questionable": 5172,
      "reading": 5173,
      "augment": 5174,
      "certainly": 5175,
      "neoplasm": 5176,
      "velocity": 5177,
      "multivitamin": 5178,
      "ok": 5179,
      "rom": 5180,
      "##face": 5181,
      "##zym": 5182,
      "##erobic": 5183,
      "##enia": 5184,
      "##entricular": 5185,
      "##lec": 5186,
      "rein": 5187,
      "##imes": 5188,
      "onto": 5189,
      "chi": 5190,
      "##iving": 5191,
      "hemopt": 5192,
      "##ullary": 5193,
      "##rolol": 5194,
      "longer": 5195,
      "seeing": 5196,
      "radiograph": 5197,
      "flexible": 5198,
      "track": 5199,
      "hold": 5200,
      "frequently": 5201,
      "mesent": 5202,
      "suspected": 5203,
      "widely": 5204,
      "amput": 5205,
      "cycle": 5206,
      "hiatal": 5207,
      "metoprolol": 5208,
      "hemoptysis": 5209,
      "82": 5210,
      "volar": 5211,
      "##ih": 5212,
      "##ius": 5213,
      "##cing": 5214,
      "##berg": 5215,
      "##eration": 5216,
      "##ulus": 5217,
      "disloc": 5218,
      "##irub": 5219,
      "allis": 5220,
      "ligation": 5221,
      "hospitalized": 5222,
      "nares": 5223,
      "adenocarcinoma": 5224,
      "laparoscope": 5225,
      "formation": 5226,
      "worsened": 5227,
      "humerus": 5228,
      "august": 5229,
      "terms": 5230,
      "bicarb": 5231,
      "impingement": 5232,
      "candidate": 5233,
      "power": 5234,
      "january": 5235,
      "88": 5236,
      "b12": 5237,
      "sper": 5238,
      "tape": 5239,
      "void": 5240,
      "##lined": 5241,
      "##aresis": 5242,
      "##inct": 5243,
      "##rocedure": 5244,
      "##urator": 5245,
      "weigh": 5246,
      "moving": 5247,
      "##roscler": 5248,
      "obturator": 5249,
      "gives": 5250,
      "receive": 5251,
      "demonstrate": 5252,
      "kept": 5253,
      "conjunctiva": 5254,
      "ovaries": 5255,
      "coordination": 5256,
      "attachment": 5257,
      "determined": 5258,
      "carbohydrate": 5259,
      "doppl": 5260,
      "sperm": 5261,
      "46": 5262,
      "##iol": 5263,
      "##oked": 5264,
      "##uble": 5265,
      "##icitis": 5266,
      "noct": 5267,
      "spaces": 5268,
      "##oneph": 5269,
      "prem": 5270,
      "operations": 5271,
      "##psis": 5272,
      "tolerate": 5273,
      "ostium": 5274,
      "130": 5275,
      "##weight": 5276,
      "##insk": 5277,
      "pacing": 5278,
      "bruit": 5279,
      "##spec": 5280,
      "osteophyte": 5281,
      "panel": 5282,
      "voice": 5283,
      "gangl": 5284,
      "##irubin": 5285,
      "hpi": 5286,
      "mening": 5287,
      "num": 5288,
      "rod": 5289,
      "vul": 5290,
      "##rition": 5291,
      "##bid": 5292,
      "thumb": 5293,
      "things": 5294,
      "##optic": 5295,
      "stability": 5296,
      "onc": 5297,
      "##stem": 5298,
      "perone": 5299,
      "black": 5300,
      "shaped": 5301,
      "presence": 5302,
      "agree": 5303,
      "retaining": 5304,
      "retired": 5305,
      "move": 5306,
      "##ober": 5307,
      "special": 5308,
      "##ontan": 5309,
      "load": 5310,
      "bronchus": 5311,
      "trouble": 5312,
      "indicates": 5313,
      "leads": 5314,
      "assisted": 5315,
      "albumin": 5316,
      "rehabil": 5317,
      "growth": 5318,
      "video": 5319,
      "postanesthesia": 5320,
      "october": 5321,
      "numerous": 5322,
      "77": 5323,
      "pse": 5324,
      "tracheal": 5325,
      "wished": 5326,
      "##ining": 5327,
      "##igo": 5328,
      "##idine": 5329,
      "stoc": 5330,
      "##raine": 5331,
      "projection": 5332,
      "##emuls": 5333,
      "caused": 5334,
      "infraumbilical": 5335,
      "meal": 5336,
      "2002": 5337,
      "tubal": 5338,
      "parox": 5339,
      "usually": 5340,
      "140": 5341,
      "neuropsy": 5342,
      "instruments": 5343,
      "situation": 5344,
      "front": 5345,
      "foraminal": 5346,
      "immunizations": 5347,
      "balance": 5348,
      "dilatation": 5349,
      "phacoemuls": 5350,
      "pseud": 5351,
      "neuropsych": 5352,
      "54": 5353,
      "cram": 5354,
      "cott": 5355,
      "harm": 5356,
      "mast": 5357,
      "zy": 5358,
      "##bed": 5359,
      "##utrition": 5360,
      "##ots": 5361,
      "##ells": 5362,
      "cardiology": 5363,
      "plans": 5364,
      "calcified": 5365,
      "processes": 5366,
      "peak": 5367,
      "waiting": 5368,
      "progressively": 5369,
      "skull": 5370,
      "arthroscopic": 5371,
      "resistance": 5372,
      "atheroscler": 5373,
      "jackson": 5374,
      "kerrison": 5375,
      "late": 5376,
      "urolog": 5377,
      "##iant": 5378,
      "##da": 5379,
      "##back": 5380,
      "stret": 5381,
      "intake": 5382,
      "spread": 5383,
      "prec": 5384,
      "##anding": 5385,
      "indiv": 5386,
      "meals": 5387,
      "marking": 5388,
      "evident": 5389,
      "suprac": 5390,
      "##ropract": 5391,
      "vitals": 5392,
      "1000": 5393,
      "##arring": 5394,
      "bring": 5395,
      "etoh": 5396,
      "mesh": 5397,
      "unclear": 5398,
      "caudal": 5399,
      "squamous": 5400,
      "respectively": 5401,
      "okay": 5402,
      "chiropract": 5403,
      "paroxysmal": 5404,
      "71": 5405,
      "cric": 5406,
      "gelf": 5407,
      "##inates": 5408,
      "strap": 5409,
      "##izer": 5410,
      "##articular": 5411,
      "rob": 5412,
      "regions": 5413,
      "atten": 5414,
      "improving": 5415,
      "calculated": 5416,
      "gastrostomy": 5417,
      "##ocytes": 5418,
      "maneuver": 5419,
      "doppler": 5420,
      "rehabilitation": 5421,
      "87": 5422,
      "bim": 5423,
      "sour": 5424,
      "##night": 5425,
      "##45": 5426,
      "##x4": 5427,
      "##oring": 5428,
      "##arc": 5429,
      "hemo": 5430,
      "##plopia": 5431,
      "diplopia": 5432,
      "weighted": 5433,
      "sacral": 5434,
      "##desis": 5435,
      "lipitor": 5436,
      "varic": 5437,
      "jaund": 5438,
      "substance": 5439,
      "pyel": 5440,
      "pectoralis": 5441,
      "particip": 5442,
      "biman": 5443,
      "600": 5444,
      "##ah": 5445,
      "##burn": 5446,
      "thread": 5447,
      "##amed": 5448,
      "##iform": 5449,
      "clon": 5450,
      "class": 5451,
      "##rub": 5452,
      "pulpos": 5453,
      "fibrosis": 5454,
      "sensitivity": 5455,
      "calcane": 5456,
      "cords": 5457,
      "##phalus": 5458,
      "##olemia": 5459,
      "laparoscopy": 5460,
      "##aracter": 5461,
      "osseous": 5462,
      "attempts": 5463,
      "glands": 5464,
      "hook": 5465,
      "hydrocephalus": 5466,
      "jaw": 5467,
      "fasting": 5468,
      "deviation": 5469,
      "embolism": 5470,
      "anticoagulation": 5471,
      "stiffness": 5472,
      "gelfoam": 5473,
      "pulposus": 5474,
      "dye": 5475,
      "turn": 5476,
      "##rist": 5477,
      "##oin": 5478,
      "##body": 5479,
      "protr": 5480,
      "##otemporal": 5481,
      "medium": 5482,
      "##uscular": 5483,
      "angina": 5484,
      "screen": 5485,
      "explored": 5486,
      "exposing": 5487,
      "involvement": 5488,
      "cleansed": 5489,
      "drift": 5490,
      "endometri": 5491,
      "sometimes": 5492,
      "migraine": 5493,
      "acetab": 5494,
      "larger": 5495,
      "53": 5496,
      "fontan": 5497,
      "waves": 5498,
      "ana": 5499,
      "inp": 5500,
      "##enter": 5501,
      "##ica": 5502,
      "##osyn": 5503,
      "atelect": 5504,
      "sepsis": 5505,
      "pert": 5506,
      "##ifications": 5507,
      "character": 5508,
      "scarring": 5509,
      "subg": 5510,
      "remarkable": 5511,
      "against": 5512,
      "neurology": 5513,
      "##arest": 5514,
      "morbid": 5515,
      "grafts": 5516,
      "lips": 5517,
      "##ways": 5518,
      "##aquin": 5519,
      "levaquin": 5520,
      "##operitone": 5521,
      "pitu": 5522,
      "stricture": 5523,
      "drop": 5524,
      "ib": 5525,
      "sternal": 5526,
      "##oll": 5527,
      "##wel": 5528,
      "##opic": 5529,
      "##odone": 5530,
      "scrub": 5531,
      "bilirubin": 5532,
      "anteg": 5533,
      "ventral": 5534,
      "nasol": 5535,
      "smoker": 5536,
      "beneath": 5537,
      "##metic": 5538,
      "##ompan": 5539,
      "appendicitis": 5540,
      "##posed": 5541,
      "##urgical": 5542,
      "retroflex": 5543,
      "closely": 5544,
      "leaving": 5545,
      "referral": 5546,
      "lifting": 5547,
      "gestational": 5548,
      "fiberoptic": 5549,
      "##rofen": 5550,
      "diminished": 5551,
      "cephalad": 5552,
      "damage": 5553,
      "cosmetic": 5554,
      "bimanual": 5555,
      "bolus": 5556,
      "eat": 5557,
      "yyy": 5558,
      "##ev": 5559,
      "##auc": 5560,
      "##orus": 5561,
      "nodu": 5562,
      "neur": 5563,
      "seated": 5564,
      "##inear": 5565,
      "alone": 5566,
      "fores": 5567,
      "##kins": 5568,
      "##uccal": 5569,
      "hyperchol": 5570,
      "paracent": 5571,
      "refract": 5572,
      "seven": 5573,
      "prostatic": 5574,
      "sedated": 5575,
      "suggested": 5576,
      "##esterolemia": 5577,
      "definite": 5578,
      "pursest": 5579,
      "amplitude": 5580,
      "accommodation": 5581,
      "asymmetry": 5582,
      "specifically": 5583,
      "circumcision": 5584,
      "yyyy": 5585,
      "nodule": 5586,
      "hypercholesterolemia": 5587,
      "4x4": 5588,
      "dark": 5589,
      "eros": 5590,
      "sick": 5591,
      "wrapped": 5592,
      "##yond": 5593,
      "##bs": 5594,
      "##enchym": 5595,
      "beyond": 5596,
      "conc": 5597,
      "incomp": 5598,
      "medrol": 5599,
      "hemip": 5600,
      "##onday": 5601,
      "cath": 5602,
      "visible": 5603,
      "cardio": 5604,
      "remember": 5605,
      "labrum": 5606,
      "##lioma": 5607,
      "apical": 5608,
      "developmental": 5609,
      "mostly": 5610,
      "instit": 5611,
      "deficiency": 5612,
      "t11": 5613,
      "ruptured": 5614,
      "rhinitis": 5615,
      "rheumatoid": 5616,
      "##scapular": 5617,
      "bifurcation": 5618,
      "gravida": 5619,
      "secretions": 5620,
      "counter": 5621,
      "average": 5622,
      "cob": 5623,
      "ger": 5624,
      "gag": 5625,
      "monday": 5626,
      "##asions": 5627,
      "exchanged": 5628,
      "undyed": 5629,
      "april": 5630,
      "localized": 5631,
      "receiving": 5632,
      "begun": 5633,
      "pedal": 5634,
      "terminal": 5635,
      "saturations": 5636,
      "deficit": 5637,
      "borderline": 5638,
      "cholecystitis": 5639,
      "spontaneously": 5640,
      "orthopnea": 5641,
      "trigger": 5642,
      "romberg": 5643,
      "##inski": 5644,
      "cul": 5645,
      "cpt": 5646,
      "own": 5647,
      "pc": 5648,
      "trop": 5649,
      "##gus": 5650,
      "##bread": 5651,
      "##atible": 5652,
      "##cet": 5653,
      "##ocks": 5654,
      "##ortion": 5655,
      "compatible": 5656,
      "ends": 5657,
      "cancell": 5658,
      "attack": 5659,
      "tendons": 5660,
      "testes": 5661,
      "197": 5662,
      "##itorum": 5663,
      "lighthead": 5664,
      "digitorum": 5665,
      "constant": 5666,
      "factor": 5667,
      "withdraw": 5668,
      "remains": 5669,
      "consciousness": 5670,
      "transfusion": 5671,
      "enhancement": 5672,
      "spray": 5673,
      "pursestring": 5674,
      "lightheaded": 5675,
      "live": 5676,
      "mu": 5677,
      "mach": 5678,
      "##mother": 5679,
      "anicteric": 5680,
      "reached": 5681,
      "##utum": 5682,
      "wet": 5683,
      "webr": 5684,
      "incor": 5685,
      "##romal": 5686,
      "spect": 5687,
      "subacromial": 5688,
      "##aginous": 5689,
      "##omycin": 5690,
      "interview": 5691,
      "enzym": 5692,
      "complicated": 5693,
      "needles": 5694,
      "thank": 5695,
      "himself": 5696,
      "redness": 5697,
      "accompan": 5698,
      "functioning": 5699,
      "sacro": 5700,
      "suggesting": 5701,
      "talked": 5702,
      "mammary": 5703,
      "eventually": 5704,
      "cardioplegia": 5705,
      "grandmother": 5706,
      "nicely": 5707,
      "cytology": 5708,
      "unfortunately": 5709,
      "jaundice": 5710,
      "webril": 5711,
      "bmp": 5712,
      "##off": 5713,
      "towel": 5714,
      "##osite": 5715,
      "##acic": 5716,
      "##riend": 5717,
      "##throid": 5718,
      "##unch": 5719,
      "spoke": 5720,
      "clipped": 5721,
      "subscapular": 5722,
      "##neys": 5723,
      "acrom": 5724,
      "distance": 5725,
      "presenting": 5726,
      "caries": 5727,
      "march": 5728,
      "cover": 5729,
      "duration": 5730,
      "depressed": 5731,
      "proton": 5732,
      "hypo": 5733,
      "orientation": 5734,
      "reduce": 5735,
      "hydr": 5736,
      "kidneys": 5737,
      "thickened": 5738,
      "trim": 5739,
      "synthroid": 5740,
      "defects": 5741,
      "fingerbread": 5742,
      "crest": 5743,
      "flush": 5744,
      "urethral": 5745,
      "experiencing": 5746,
      "looked": 5747,
      "tonsillectomy": 5748,
      "listed": 5749,
      "annular": 5750,
      "behavior": 5751,
      "elli": 5752,
      "egd": 5753,
      "endometriosis": 5754,
      "antegrade": 5755,
      "fingerbreadth": 5756,
      "parest": 5757,
      "targ": 5758,
      "uv": 5759,
      "uih": 5760,
      "x1": 5761,
      "xero": 5762,
      "##leral": 5763,
      "##dom": 5764,
      "##inger": 5765,
      "##oust": 5766,
      "ongoing": 5767,
      "##iliac": 5768,
      "notable": 5769,
      "##etic": 5770,
      "sputum": 5771,
      "##illes": 5772,
      "scleral": 5773,
      "record": 5774,
      "comprom": 5775,
      "cornea": 5776,
      "overnight": 5777,
      "##racted": 5778,
      "positioning": 5779,
      "opin": 5780,
      "glans": 5781,
      "glauc": 5782,
      "digoxin": 5783,
      "brady": 5784,
      "drinking": 5785,
      "grams": 5786,
      "counseling": 5787,
      "##othorax": 5788,
      "reinfor": 5789,
      "cotton": 5790,
      "threaded": 5791,
      "target": 5792,
      "uihc": 5793,
      "xeroform": 5794,
      "glaucoma": 5795,
      "79": 5796,
      "dull": 5797,
      "iod": 5798,
      "mask": 5799,
      "##sis": 5800,
      "##app": 5801,
      "##vis": 5802,
      "##erly": 5803,
      "##erol": 5804,
      "always": 5805,
      "cho": 5806,
      "inside": 5807,
      "regim": 5808,
      "nonf": 5809,
      "muscular": 5810,
      "amn": 5811,
      "additionally": 5812,
      "160": 5813,
      "orifice": 5814,
      "gastroenter": 5815,
      "humeral": 5816,
      "looks": 5817,
      "causes": 5818,
      "turbinate": 5819,
      "calories": 5820,
      "urgency": 5821,
      "crystalloid": 5822,
      "fresh": 5823,
      "pituitary": 5824,
      "tropon": 5825,
      "cad": 5826,
      "kind": 5827,
      "miss": 5828,
      "nyst": 5829,
      "sus": 5830,
      "##bar": 5831,
      "##anium": 5832,
      "real": 5833,
      "##ache": 5834,
      "generally": 5835,
      "guided": 5836,
      "110": 5837,
      "smokes": 5838,
      "thoracotomy": 5839,
      "optic": 5840,
      "titanium": 5841,
      "circumferential": 5842,
      "gestation": 5843,
      "independent": 5844,
      "mediastinal": 5845,
      "deltoid": 5846,
      "##lycerin": 5847,
      "critical": 5848,
      "atelectasis": 5849,
      "hig": 5850,
      "mastoid": 5851,
      "##oz": 5852,
      "##edullary": 5853,
      "##acity": 5854,
      "##utic": 5855,
      "##stit": 5856,
      "disability": 5857,
      "spent": 5858,
      "extent": 5859,
      "##abolic": 5860,
      "##ardium": 5861,
      "inject": 5862,
      "core": 5863,
      "paran": 5864,
      "partner": 5865,
      "relations": 5866,
      "assessed": 5867,
      "sugars": 5868,
      "returns": 5869,
      "ulceration": 5870,
      "introduc": 5871,
      "curettage": 5872,
      "hydrocele": 5873,
      "mobile": 5874,
      "exsanguinated": 5875,
      "phacoemulsification": 5876,
      "##operitoneum": 5877,
      "hot": 5878,
      "house": 5879,
      "psa": 5880,
      "rati": 5881,
      "ram": 5882,
      "rare": 5883,
      "##con": 5884,
      "##orous": 5885,
      "reins": 5886,
      "##lyc": 5887,
      "condu": 5888,
      "##ify": 5889,
      "clav": 5890,
      "syring": 5891,
      "unresp": 5892,
      "##agm": 5893,
      "closing": 5894,
      "insight": 5895,
      "2001": 5896,
      "ligature": 5897,
      "goals": 5898,
      "effusions": 5899,
      "confusion": 5900,
      "sleeping": 5901,
      "walker": 5902,
      "prominences": 5903,
      "taper": 5904,
      "watch": 5905,
      "##roglycerin": 5906,
      "nitroglycerin": 5907,
      "cerebellar": 5908,
      "protrusion": 5909,
      "unrespons": 5910,
      "buccal": 5911,
      "ict": 5912,
      "##rhythm": 5913,
      "##land": 5914,
      "##hinct": 5915,
      "thecal": 5916,
      "##leg": 5917,
      "##ilinear": 5918,
      "sheet": 5919,
      "##chlor": 5920,
      "seld": 5921,
      "sphinct": 5922,
      "##ivan": 5923,
      "retention": 5924,
      "##uprofen": 5925,
      "smaller": 5926,
      "swoll": 5927,
      "ultim": 5928,
      "commin": 5929,
      "grafting": 5930,
      "september": 5931,
      "entirety": 5932,
      "viable": 5933,
      "infiltrate": 5934,
      "colli": 5935,
      "limbus": 5936,
      "pancreas": 5937,
      "ambulation": 5938,
      "curvilinear": 5939,
      "##chondral": 5940,
      "ibuprofen": 5941,
      "sphincter": 5942,
      "swollen": 5943,
      "c2": 5944,
      "gain": 5945,
      "tented": 5946,
      "wrap": 5947,
      "##oly": 5948,
      "##dl": 5949,
      "##kal": 5950,
      "##isp": 5951,
      "##itated": 5952,
      "##ulations": 5953,
      "atrophic": 5954,
      "object": 5955,
      "subperi": 5956,
      "endplate": 5957,
      "centimeter": 5958,
      "severity": 5959,
      "achilles": 5960,
      "reasonable": 5961,
      "allowing": 5962,
      "becom": 5963,
      "diverticulosis": 5964,
      "petech": 5965,
      "malignancy": 5966,
      "ideation": 5967,
      "harmonic": 5968,
      "49": 5969,
      "89": 5970,
      "burr": 5971,
      "dated": 5972,
      "lines": 5973,
      "s3": 5974,
      "tack": 5975,
      "##ted": 5976,
      "##lo": 5977,
      "inverted": 5978,
      "##ics": 5979,
      "##ime": 5980,
      "##chair": 5981,
      "perit": 5982,
      "##elastic": 5983,
      "energ": 5984,
      "giving": 5985,
      "parenchym": 5986,
      "hemostats": 5987,
      "tumors": 5988,
      "demerol": 5989,
      "resulting": 5990,
      "hepatic": 5991,
      "driving": 5992,
      "identifying": 5993,
      "judgment": 5994,
      "sampl": 5995,
      "mobility": 5996,
      "pancreatic": 5997,
      "viscoelastic": 5998,
      "incomplet": 5999,
      "cancellous": 6000,
      "hope": 6001,
      "land": 6002,
      "ros": 6003,
      "wis": 6004,
      "##men": 6005,
      "##point": 6006,
      "##but": 6007,
      "##isol": 6008,
      "reev": 6009,
      "let": 6010,
      "##olateral": 6011,
      "selected": 6012,
      "perr": 6013,
      "ada": 6014,
      "spasm": 6015,
      "##sell": 6016,
      "##hesias": 6017,
      "##agic": 6018,
      "elements": 6019,
      "employed": 6020,
      "remote": 6021,
      "model": 6022,
      "severely": 6023,
      "restart": 6024,
      "exception": 6025,
      "penet": 6026,
      "bruising": 6027,
      "performing": 6028,
      "periods": 6029,
      "dermab": 6030,
      "microscopic": 6031,
      "hallucis": 6032,
      "arthrodesis": 6033,
      "ophthalm": 6034,
      "habits": 6035,
      "incorpor": 6036,
      "hydroneph": 6037,
      "reevalu": 6038,
      "6h": 6039,
      "eld": 6040,
      "lov": 6041,
      "pyl": 6042,
      "sess": 6043,
      "tired": 6044,
      "viral": 6045,
      "##ier": 6046,
      "##ton": 6047,
      "##lithiasis": 6048,
      "inner": 6049,
      "toward": 6050,
      "##ctal": 6051,
      "dece": 6052,
      "intract": 6053,
      "sprain": 6054,
      "retinal": 6055,
      "nonspec": 6056,
      "esr": 6057,
      "lymphoma": 6058,
      "calcifications": 6059,
      "axilla": 6060,
      "packs": 6061,
      "decompressed": 6062,
      "bones": 6063,
      "cholelithiasis": 6064,
      "considered": 6065,
      "looking": 6066,
      "ventriculogram": 6067,
      "turbinates": 6068,
      "cpap": 6069,
      "bundle": 6070,
      "bicarbonate": 6071,
      "inpatient": 6072,
      "ellipt": 6073,
      "opinion": 6074,
      "regimen": 6075,
      "ratio": 6076,
      "syringe": 6077,
      "seldinger": 6078,
      "dermabond": 6079,
      "intractable": 6080,
      "nonspecific": 6081,
      "800": 6082,
      "bue": 6083,
      "cocaine": 6084,
      "ever": 6085,
      "ky": 6086,
      "langu": 6087,
      "pict": 6088,
      "##na": 6089,
      "##inent": 6090,
      "##leb": 6091,
      "##osu": 6092,
      "ended": 6093,
      "admit": 6094,
      "##undant": 6095,
      "radicular": 6096,
      "tolerating": 6097,
      "application": 6098,
      "aspects": 6099,
      "fullness": 6100,
      "electroly": 6101,
      "pneumoperitoneum": 6102,
      "babinski": 6103,
      "alternative": 6104,
      "cartilaginous": 6105,
      "bactrim": 6106,
      "necrotic": 6107,
      "12345": 6108,
      "claim": 6109,
      "uvula": 6110,
      "unresponsive": 6111,
      "energy": 6112,
      "hydronephrosis": 6113,
      "kyph": 6114,
      "language": 6115,
      "cv": 6116,
      "dup": 6117,
      "density": 6118,
      "trap": 6119,
      "ut": 6120,
      "##osity": 6121,
      "##acia": 6122,
      "bell": 6123,
      "play": 6124,
      "##artos": 6125,
      "art": 6126,
      "arran": 6127,
      "##mox": 6128,
      "sublux": 6129,
      "acne": 6130,
      "smear": 6131,
      "epile": 6132,
      "##athyroid": 6133,
      "shoulders": 6134,
      "scans": 6135,
      "group": 6136,
      "terminated": 6137,
      "esophagitis": 6138,
      "implants": 6139,
      "trocars": 6140,
      "##azine": 6141,
      "leaf": 6142,
      "entering": 6143,
      "determine": 6144,
      "malignant": 6145,
      "delayed": 6146,
      "perineum": 6147,
      "education": 6148,
      "source": 6149,
      "suspect": 6150,
      "elderly": 6151,
      "gy": 6152,
      "hom": 6153,
      "kling": 6154,
      "ou": 6155,
      "salp": 6156,
      "##au": 6157,
      "##asic": 6158,
      "nex": 6159,
      "chair": 6160,
      "uni": 6161,
      "unco": 6162,
      "acu": 6163,
      "102": 6164,
      "injured": 6165,
      "tele": 6166,
      "occluded": 6167,
      "uterosacral": 6168,
      "radiology": 6169,
      "hypot": 6170,
      "hypog": 6171,
      "penrose": 6172,
      "bedside": 6173,
      "members": 6174,
      "regards": 6175,
      "musculature": 6176,
      "cream": 6177,
      "steroids": 6178,
      "shaver": 6179,
      "intensity": 6180,
      "product": 6181,
      "crackles": 6182,
      "ectopic": 6183,
      "pertinent": 6184,
      "relationsh": 6185,
      "salping": 6186,
      "rca": 6187,
      "sib": 6188,
      "tail": 6189,
      "vasc": 6190,
      "##omot": 6191,
      "##ulator": 6192,
      "wean": 6193,
      "unst": 6194,
      "##abial": 6195,
      "meatus": 6196,
      "swe": 6197,
      "occup": 6198,
      "electrical": 6199,
      "protection": 6200,
      "prosthesis": 6201,
      "falls": 6202,
      "degeneration": 6203,
      "foods": 6204,
      "heparinized": 6205,
      "anticip": 6206,
      "recorded": 6207,
      "sexual": 6208,
      "naming": 6209,
      "##razole": 6210,
      "refractory": 6211,
      "withdrawal": 6212,
      "subscapularis": 6213,
      "bott": 6214,
      "frid": 6215,
      "gia": 6216,
      "mys": 6217,
      "pubic": 6218,
      "t8": 6219,
      "##rt": 6220,
      "##ield": 6221,
      "##tes": 6222,
      "##inatus": 6223,
      "##asive": 6224,
      "##oster": 6225,
      "##oli": 6226,
      "death": 6227,
      "spi": 6228,
      "spur": 6229,
      "arrhythm": 6230,
      "consum": 6231,
      "gener": 6232,
      "moves": 6233,
      "import": 6234,
      "antrum": 6235,
      "grasper": 6236,
      "synovitis": 6237,
      "vitre": 6238,
      "thinks": 6239,
      "steril": 6240,
      "shaved": 6241,
      "lacerations": 6242,
      "metastasis": 6243,
      "##aspinatus": 6244,
      "##foram": 6245,
      "ventilator": 6246,
      "retinaculum": 6247,
      "contractions": 6248,
      "exacerbation": 6249,
      "lavage": 6250,
      "intramedullary": 6251,
      "attenuation": 6252,
      "foreskin": 6253,
      "4x4s": 6254,
      "sacroiliac": 6255,
      "nonfocal": 6256,
      "friday": 6257,
      "83": 6258,
      "oly": 6259,
      "traumatic": 6260,
      "vig": 6261,
      "##rh": 6262,
      "##ten": 6263,
      "##auricular": 6264,
      "##diss": 6265,
      "##standing": 6266,
      "ativan": 6267,
      "lex": 6268,
      "perco": 6269,
      "shock": 6270,
      "chor": 6271,
      "clar": 6272,
      "##ants": 6273,
      "scars": 6274,
      "synt": 6275,
      "104": 6276,
      "##urring": 6277,
      "whole": 6278,
      "fluent": 6279,
      "rise": 6280,
      "locally": 6281,
      "depth": 6282,
      "angled": 6283,
      "longstanding": 6284,
      "apg": 6285,
      "accur": 6286,
      "sinusitis": 6287,
      "lobes": 6288,
      "##ronchial": 6289,
      "hemorrhagic": 6290,
      "ptosis": 6291,
      "ethmoid": 6292,
      "ventriculography": 6293,
      "adnexa": 6294,
      "##mpus": 6295,
      "independ": 6296,
      "chondromal": 6297,
      "green": 6298,
      "paracentesis": 6299,
      "troponin": 6300,
      "nystagm": 6301,
      "ultimately": 6302,
      "subperiosteal": 6303,
      "olympus": 6304,
      "percocet": 6305,
      "chondromalacia": 6306,
      "nystagmus": 6307,
      "cns": 6308,
      "nutrition": 6309,
      "##iter": 6310,
      "##urney": 6311,
      "plug": 6312,
      "plastic": 6313,
      "abr": 6314,
      "##ortic": 6315,
      "scat": 6316,
      "disturb": 6317,
      "follows": 6318,
      "##ertight": 6319,
      "twist": 6320,
      "ocular": 6321,
      "pleura": 6322,
      "pratt": 6323,
      "localization": 6324,
      "hypox": 6325,
      "##oplite": 6326,
      "retroperitoneal": 6327,
      "slowing": 6328,
      "poorly": 6329,
      "pmi": 6330,
      "leave": 6331,
      "watertight": 6332,
      "comparison": 6333,
      "##omnia": 6334,
      "adherent": 6335,
      "amputation": 6336,
      "supraclavicular": 6337,
      "accompanied": 6338,
      "elliptical": 6339,
      "uncovertebral": 6340,
      "myself": 6341,
      "amox": 6342,
      "pub": 6343,
      "vanc": 6344,
      "##iel": 6345,
      "##eutic": 6346,
      "##roplasty": 6347,
      "##acy": 6348,
      "wearing": 6349,
      "##emoral": 6350,
      "nothing": 6351,
      "arrest": 6352,
      "resume": 6353,
      "containing": 6354,
      "repet": 6355,
      "##othiaz": 6356,
      "meq": 6357,
      "decad": 6358,
      "metabolic": 6359,
      "drapes": 6360,
      "gaze": 6361,
      "##hold": 6362,
      "vertigo": 6363,
      "groups": 6364,
      "##atellar": 6365,
      "arterios": 6366,
      "hydrochlor": 6367,
      "stere": 6368,
      "predominant": 6369,
      "conjunctival": 6370,
      "irregularities": 6371,
      "briefly": 6372,
      "pieces": 6373,
      "judkins": 6374,
      "neuroma": 6375,
      "staple": 6376,
      "chiropractic": 6377,
      "compromise": 6378,
      "introducer": 6379,
      "acuity": 6380,
      "##othiazide": 6381,
      "hydrochlorothiazide": 6382,
      "47": 6383,
      "brown": 6384,
      "hur": 6385,
      "koc": 6386,
      "larynx": 6387,
      "pound": 6388,
      "rang": 6389,
      "##noon": 6390,
      "##ground": 6391,
      "often": 6392,
      "##rav": 6393,
      "ability": 6394,
      "preserve": 6395,
      "afternoon": 6396,
      "interbody": 6397,
      "background": 6398,
      "decreasing": 6399,
      "heartburn": 6400,
      "##omax": 6401,
      "##ophore": 6402,
      "fractured": 6403,
      "consisted": 6404,
      "cannulate": 6405,
      "perfor": 6406,
      "menis": 6407,
      "osteopor": 6408,
      "evacuation": 6409,
      "happy": 6410,
      "voiding": 6411,
      "gerd": 6412,
      "paresthesias": 6413,
      "reinsert": 6414,
      "scattered": 6415,
      "vancomycin": 6416,
      "##ophorectomy": 6417,
      "73": 6418,
      "auricular": 6419,
      "ht": 6420,
      "lord": 6421,
      "ua": 6422,
      "##lig": 6423,
      "##atically": 6424,
      "##rostomy": 6425,
      "exch": 6426,
      "##tharg": 6427,
      "hemod": 6428,
      "biliary": 6429,
      "admitting": 6430,
      "parap": 6431,
      "manual": 6432,
      "colonoscope": 6433,
      "trochan": 6434,
      "managed": 6435,
      "tightness": 6436,
      "successfully": 6437,
      "barium": 6438,
      "keeping": 6439,
      "circumferentially": 6440,
      "arthroscopy": 6441,
      "##angiogram": 6442,
      "bursa": 6443,
      "donor": 6444,
      "malleolus": 6445,
      "ganglion": 6446,
      "individual": 6447,
      "acetabulum": 6448,
      "nasolabial": 6449,
      "instituted": 6450,
      "perrla": 6451,
      "draw": 6452,
      "ling": 6453,
      "lup": 6454,
      "pop": 6455,
      "peg": 6456,
      "poplite": 6457,
      "sense": 6458,
      "##aver": 6459,
      "anterolateral": 6460,
      "##icc": 6461,
      "##rodu": 6462,
      "##idym": 6463,
      "##otactic": 6464,
      "thereaf": 6465,
      "spong": 6466,
      "unus": 6467,
      "reposition": 6468,
      "insomnia": 6469,
      "outlined": 6470,
      "mark": 6471,
      "desired": 6472,
      "##ella": 6473,
      "hospitalizations": 6474,
      "fibers": 6475,
      "worker": 6476,
      "radiating": 6477,
      "regional": 6478,
      "pneumothorax": 6479,
      "##henoid": 6480,
      "achieve": 6481,
      "##rete": 6482,
      "crep": 6483,
      "epididym": 6484,
      "mesothe": 6485,
      "capacity": 6486,
      "schedule": 6487,
      "snack": 6488,
      "skills": 6489,
      "ecchym": 6490,
      "sequential": 6491,
      "films": 6492,
      "codeine": 6493,
      "tubercle": 6494,
      "accept": 6495,
      "neuropsychological": 6496,
      "##omotor": 6497,
      "synthes": 6498,
      "stereotactic": 6499,
      "osteoporosis": 6500,
      "thereafter": 6501,
      "mesothelioma": 6502,
      "az": 6503,
      "dome": 6504,
      "homic": 6505,
      "lysis": 6506,
      "option": 6507,
      "ps": 6508,
      "t3": 6509,
      "##hel": 6510,
      "offer": 6511,
      "##oses": 6512,
      "thres": 6513,
      "uses": 6514,
      "##elitis": 6515,
      "spacer": 6516,
      "##illitis": 6517,
      "content": 6518,
      "##omyelitis": 6519,
      "hemisp": 6520,
      "interstit": 6521,
      "bloody": 6522,
      "inde": 6523,
      "colitis": 6524,
      "neuros": 6525,
      "myring": 6526,
      "osteotome": 6527,
      "osteomyelitis": 6528,
      "initiated": 6529,
      "freely": 6530,
      "angio": 6531,
      "##iatrist": 6532,
      "helped": 6533,
      "basically": 6534,
      "suggestion": 6535,
      "palm": 6536,
      "bright": 6537,
      "toprol": 6538,
      "experience": 6539,
      "wants": 6540,
      "travel": 6541,
      "##rotomy": 6542,
      "infarct": 6543,
      "mammogram": 6544,
      "buttock": 6545,
      "calorie": 6546,
      "neutral": 6547,
      "arrival": 6548,
      "iodine": 6549,
      "sterilization": 6550,
      "reinserted": 6551,
      "unusual": 6552,
      "dad": 6553,
      "pi": 6554,
      "pall": 6555,
      "##ej": 6556,
      "##gi": 6557,
      "##uous": 6558,
      "##hor": 6559,
      "##hetic": 6560,
      "##osum": 6561,
      "##urance": 6562,
      "strain": 6563,
      "##ectious": 6564,
      "##antin": 6565,
      "contribut": 6566,
      "evoked": 6567,
      "##kinet": 6568,
      "secure": 6569,
      "meet": 6570,
      "massive": 6571,
      "metal": 6572,
      "fascicul": 6573,
      "swit": 6574,
      "##ovenous": 6575,
      "hematologic": 6576,
      "##genital": 6577,
      "forehead": 6578,
      "resolution": 6579,
      "peel": 6580,
      "cerebro": 6581,
      "crp": 6582,
      "##ofemoral": 6583,
      "exercises": 6584,
      "norv": 6585,
      "leakage": 6586,
      "medicines": 6587,
      "deviated": 6588,
      "communic": 6589,
      "magnes": 6590,
      "sexually": 6591,
      "postprocedure": 6592,
      "##physis": 6593,
      "stockinet": 6594,
      "lightheadedness": 6595,
      "objects": 6596,
      "decadron": 6597,
      "kocher": 6598,
      "homicidal": 6599,
      "fasciculations": 6600,
      "ham": 6601,
      "ig": 6602,
      "rbc": 6603,
      "veg": 6604,
      "##right": 6605,
      "##oot": 6606,
      "##oqu": 6607,
      "##osing": 6608,
      "##uli": 6609,
      "##openia": 6610,
      "str": 6611,
      "letharg": 6612,
      "##abs": 6613,
      "canth": 6614,
      "planes": 6615,
      "empt": 6616,
      "weightbearing": 6617,
      "elevate": 6618,
      "arthrosis": 6619,
      "invasion": 6620,
      "blocker": 6621,
      "lipid": 6622,
      "easy": 6623,
      "drip": 6624,
      "snare": 6625,
      "believes": 6626,
      "retractions": 6627,
      "neutroph": 6628,
      "temporary": 6629,
      "comprehensive": 6630,
      "wheelchair": 6631,
      "atherosclerotic": 6632,
      "machine": 6633,
      "relationship": 6634,
      "##foraminal": 6635,
      "big": 6636,
      "dog": 6637,
      "gir": 6638,
      "ng": 6639,
      "pren": 6640,
      "pda": 6641,
      "x4": 6642,
      "##action": 6643,
      "##heres": 6644,
      "##atures": 6645,
      "##leep": 6646,
      "stents": 6647,
      "asleep": 6648,
      "##emic": 6649,
      "##ematous": 6650,
      "##ocin": 6651,
      "##thral": 6652,
      "alkal": 6653,
      "span": 6654,
      "spastic": 6655,
      "##ival": 6656,
      "immo": 6657,
      "##ensive": 6658,
      "##coper": 6659,
      "101": 6660,
      "retained": 6661,
      "pulley": 6662,
      "##uccess": 6663,
      "attending": 6664,
      "colace": 6665,
      "word": 6666,
      "iris": 6667,
      "##arseness": 6668,
      "urination": 6669,
      "intraarticular": 6670,
      "continuing": 6671,
      "passing": 6672,
      "gastritis": 6673,
      "pathologic": 6674,
      "##ocecal": 6675,
      "pericardium": 6676,
      "bp1": 6677,
      "ileocecal": 6678,
      "omn": 6679,
      "vacu": 6680,
      "concentration": 6681,
      "foramina": 6682,
      "mechanical": 6683,
      "unsuccess": 6684,
      "dislocation": 6685,
      "higher": 6686,
      "clavicle": 6687,
      "adaptic": 6688,
      "##ejun": 6689,
      "cerebrovascular": 6690,
      "norvasc": 6691,
      "prenatal": 6692,
      "cel": 6693,
      "ochs": 6694,
      "pf": 6695,
      "send": 6696,
      "tan": 6697,
      "##noid": 6698,
      "##matous": 6699,
      "##oactive": 6700,
      "##codone": 6701,
      "##inc": 6702,
      "##enail": 6703,
      "##ites": 6704,
      "##arter": 6705,
      "toenail": 6706,
      "atax": 6707,
      "congenital": 6708,
      "##riform": 6709,
      "scarp": 6710,
      "infund": 6711,
      "infectious": 6712,
      "acqu": 6713,
      "##apro": 6714,
      "##piratory": 6715,
      "##achnoid": 6716,
      "cycl": 6717,
      "supra": 6718,
      "fired": 6719,
      "recovered": 6720,
      "draining": 6721,
      "cuts": 6722,
      "cystoscope": 6723,
      "prostat": 6724,
      "supplement": 6725,
      "grasp": 6726,
      "concerning": 6727,
      "thrombocyt": 6728,
      "waist": 6729,
      "echo": 6730,
      "anatom": 6731,
      "snoring": 6732,
      "buried": 6733,
      "something": 6734,
      "opposite": 6735,
      "therapeutic": 6736,
      "sulfa": 6737,
      "icterus": 6738,
      "##oliosis": 6739,
      "interstitial": 6740,
      "scarpa": 6741,
      "##lan": 6742,
      "##inum": 6743,
      "##ional": 6744,
      "inability": 6745,
      "prom": 6746,
      "exist": 6747,
      "exiting": 6748,
      "##emed": 6749,
      "deemed": 6750,
      "##unk": 6751,
      "##ogast": 6752,
      "contusion": 6753,
      "##ibul": 6754,
      "compressive": 6755,
      "interphal": 6756,
      "105": 6757,
      "mini": 6758,
      "colostomy": 6759,
      "occur": 6760,
      "glute": 6761,
      "colonic": 6762,
      "dorsum": 6763,
      "180": 6764,
      "bronchitis": 6765,
      "entirely": 6766,
      "prescript": 6767,
      "nervous": 6768,
      "bands": 6769,
      "narc": 6770,
      "hoarseness": 6771,
      "triple": 6772,
      "nephrectomy": 6773,
      "ambulate": 6774,
      "circumference": 6775,
      "##orbable": 6776,
      "fibroids": 6777,
      "definitive": 6778,
      "myelopathy": 6779,
      "glasses": 6780,
      "weighs": 6781,
      "cricoid": 6782,
      "incomplete": 6783,
      "electrolytes": 6784,
      "veget": 6785,
      "alkaline": 6786,
      "bending": 6787,
      "ef": 6788,
      "gum": 6789,
      "gone": 6790,
      "jp": 6791,
      "##haps": 6792,
      "##dr": 6793,
      "##father": 6794,
      "##itors": 6795,
      "##ithel": 6796,
      "inhib": 6797,
      "##otrex": 6798,
      "##oler": 6799,
      "perhaps": 6800,
      "intoler": 6801,
      "added": 6802,
      "blue": 6803,
      "##omyopathy": 6804,
      "##ruary": 6805,
      "interested": 6806,
      "nonp": 6807,
      "cardiomyopathy": 6808,
      "parathyroid": 6809,
      "lymphocytes": 6810,
      "illnesses": 6811,
      "gray": 6812,
      "effective": 6813,
      "equally": 6814,
      "pedis": 6815,
      "bases": 6816,
      "palsy": 6817,
      "indicating": 6818,
      "strokes": 6819,
      "##lecting": 6820,
      "properly": 6821,
      "triang": 6822,
      "impaired": 6823,
      "methotrex": 6824,
      "##omedial": 6825,
      "february": 6826,
      "##flow": 6827,
      "hemiparesis": 6828,
      "protonix": 6829,
      "trimmed": 6830,
      "trapez": 6831,
      "univers": 6832,
      "generator": 6833,
      "independently": 6834,
      "hemodialysis": 6835,
      "methotrexate": 6836,
      "rue": 6837,
      "##oresis": 6838,
      "##field": 6839,
      "##enox": 6840,
      "##urethral": 6841,
      "plates": 6842,
      "deployed": 6843,
      "##ocor": 6844,
      "##ogenic": 6845,
      "##more": 6846,
      "##iph": 6847,
      "##abdom": 6848,
      "symphysis": 6849,
      "words": 6850,
      "remn": 6851,
      "advanc": 6852,
      "expressed": 6853,
      "goes": 6854,
      "awa": 6855,
      "maximal": 6856,
      "sheaths": 6857,
      "prolapse": 6858,
      "speak": 6859,
      "##placed": 6860,
      "deformities": 6861,
      "luminal": 6862,
      "##hylene": 6863,
      "accessory": 6864,
      "sternum": 6865,
      "brothers": 6866,
      "autograft": 6867,
      "insufflation": 6868,
      "milk": 6869,
      "lovenox": 6870,
      "salpingo": 6871,
      "popliteal": 6872,
      "indeed": 6873,
      "unsuccessful": 6874,
      "##abdominal": 6875,
      "fal": 6876,
      "fah": 6877,
      "gurney": 6878,
      "outer": 6879,
      "s4": 6880,
      "tia": 6881,
      "yet": 6882,
      "##gut": 6883,
      "##mi": 6884,
      "##heit": 6885,
      "##isk": 6886,
      "##itin": 6887,
      "##adone": 6888,
      "atyp": 6889,
      "##umeral": 6890,
      "blake": 6891,
      "blind": 6892,
      "upright": 6893,
      "carina": 6894,
      "catgut": 6895,
      "##ologous": 6896,
      "visits": 6897,
      "##obl": 6898,
      "##renheit": 6899,
      "subcutaneously": 6900,
      "passage": 6901,
      "138": 6902,
      "flexure": 6903,
      "command": 6904,
      "lesser": 6905,
      "stenting": 6906,
      "palmar": 6907,
      "infiltration": 6908,
      "segments": 6909,
      "various": 6910,
      "tenosyn": 6911,
      "consideration": 6912,
      "appreciate": 6913,
      "autologous": 6914,
      "papillary": 6915,
      "audible": 6916,
      "nephrostomy": 6917,
      "methadone": 6918,
      "##ohumeral": 6919,
      "shield": 6920,
      "paralle": 6921,
      "vesic": 6922,
      "percentile": 6923,
      "radiographs": 6924,
      "scrubbed": 6925,
      "amoxicillin": 6926,
      "sponges": 6927,
      "ochsner": 6928,
      "prescriptions": 6929,
      "fahrenheit": 6930,
      "ck": 6931,
      "native": 6932,
      "##gias": 6933,
      "##cher": 6934,
      "##oratory": 6935,
      "##ana": 6936,
      "stump": 6937,
      "formed": 6938,
      "##isthesis": 6939,
      "##astoma": 6940,
      "intervertebral": 6941,
      "incisional": 6942,
      "##obia": 6943,
      "manif": 6944,
      "visualize": 6945,
      "phone": 6946,
      "brevis": 6947,
      "salt": 6948,
      "exploratory": 6949,
      "##exy": 6950,
      "packing": 6951,
      "divor": 6952,
      "dietary": 6953,
      "thrombus": 6954,
      "tibialis": 6955,
      "address": 6956,
      "enhancing": 6957,
      "relieved": 6958,
      "peroneal": 6959,
      "hemovac": 6960,
      "subglottic": 6961,
      "##lycemia": 6962,
      "petechia": 6963,
      "wishes": 6964,
      "reevaluation": 6965,
      "hamm": 6966,
      "oil": 6967,
      "pract": 6968,
      "tors": 6969,
      "tones": 6970,
      "wax": 6971,
      "##ien": 6972,
      "##iologic": 6973,
      "##lings": 6974,
      "##var": 6975,
      "##cus": 6976,
      "##bo": 6977,
      "##burg": 6978,
      "##osal": 6979,
      "patients": 6980,
      "atenol": 6981,
      "##ries": 6982,
      "incise": 6983,
      "afore": 6984,
      "anesthes": 6985,
      "##kinesis": 6986,
      "##urnal": 6987,
      "antever": 6988,
      "##ophobia": 6989,
      "##atories": 6990,
      "brainstem": 6991,
      "auscult": 6992,
      "##urgery": 6993,
      "temporalis": 6994,
      "helpful": 6995,
      "structure": 6996,
      "ductus": 6997,
      "chemist": 6998,
      "folds": 6999,
      "skilled": 7000,
      "paralysis": 7001,
      "subtle": 7002,
      "suffered": 7003,
      "bacteria": 7004,
      "fingerbreadths": 7005,
      "siblings": 7006,
      "magnesium": 7007,
      "vacuum": 7008,
      "atenolol": 7009,
      "bad": 7010,
      "fiss": 7011,
      "horn": 7012,
      "##ss": 7013,
      "##ee": 7014,
      "##mined": 7015,
      "##erosity": 7016,
      "##edget": 7017,
      "##atase": 7018,
      "##ork": 7019,
      "##ioned": 7020,
      "##anation": 7021,
      "asa": 7022,
      "pledget": 7023,
      "histor": 7024,
      "##akes": 7025,
      "##mentioned": 7026,
      "foll": 7027,
      "hygi": 7028,
      "rolled": 7029,
      "transesophageal": 7030,
      "tuberosity": 7031,
      "testicular": 7032,
      "drape": 7033,
      "locked": 7034,
      "effac": 7035,
      "weekly": 7036,
      "flexed": 7037,
      "electroc": 7038,
      "polys": 7039,
      "equals": 7040,
      "esophagogast": 7041,
      "brisk": 7042,
      "collar": 7043,
      "cortic": 7044,
      "diamond": 7045,
      "dropped": 7046,
      "raising": 7047,
      "tightened": 7048,
      "ascites": 7049,
      "ecg": 7050,
      "method": 7051,
      "suicide": 7052,
      "irritable": 7053,
      "adenoidectomy": 7054,
      "bleeders": 7055,
      "evacuated": 7056,
      "sooner": 7057,
      "comprehension": 7058,
      "burning": 7059,
      "phosphatase": 7060,
      "samples": 7061,
      "meniscal": 7062,
      "immobil": 7063,
      "hygiene": 7064,
      "aerobic": 7065,
      "fen": 7066,
      "ooz": 7067,
      "rand": 7068,
      "t9": 7069,
      "ven": 7070,
      "yes": 7071,
      "##rically": 7072,
      "##orin": 7073,
      "##esc": 7074,
      "##icel": 7075,
      "reass": 7076,
      "thr": 7077,
      "##veolar": 7078,
      "stating": 7079,
      "seat": 7080,
      "scoliosis": 7081,
      "##formin": 7082,
      "##ignificant": 7083,
      "contain": 7084,
      "daytime": 7085,
      "##epam": 7086,
      "##ardiac": 7087,
      "marker": 7088,
      "metformin": 7089,
      "tolerance": 7090,
      "gua": 7091,
      "redundant": 7092,
      "myo": 7093,
      "detected": 7094,
      "##oxide": 7095,
      "psychological": 7096,
      "verteb": 7097,
      "patellofemoral": 7098,
      "pullback": 7099,
      "submitted": 7100,
      "mediastinum": 7101,
      "epicondyl": 7102,
      "dexon": 7103,
      "tiny": 7104,
      "harvested": 7105,
      "bradycardia": 7106,
      "reinforced": 7107,
      "penetration": 7108,
      "##dissection": 7109,
      "apgars": 7110,
      "neutrophils": 7111,
      "ataxia": 7112,
      "advancement": 7113,
      "atypical": 7114,
      "aforementioned": 7115,
      "bard": 7116,
      "hit": 7117,
      "jer": 7118,
      "lort": 7119,
      "lax": 7120,
      "puff": 7121,
      "somn": 7122,
      "tag": 7123,
      "##cill": 7124,
      "##10": 7125,
      "##hez": 7126,
      "##inence": 7127,
      "##enst": 7128,
      "##urity": 7129,
      "stair": 7130,
      "##emesis": 7131,
      "lear": 7132,
      "##olisthesis": 7133,
      "##ectomies": 7134,
      "adip": 7135,
      "sphenoid": 7136,
      "chf": 7137,
      "##aging": 7138,
      "intermedi": 7139,
      "intervent": 7140,
      "quick": 7141,
      "cool": 7142,
      "cardiologist": 7143,
      "##strual": 7144,
      "regularly": 7145,
      "hematemesis": 7146,
      "##unting": 7147,
      "132": 7148,
      "emergent": 7149,
      "slee": 7150,
      "progression": 7151,
      "progressed": 7152,
      "trend": 7153,
      "arteriovenous": 7154,
      "rhf": 7155,
      "variable": 7156,
      "##ottis": 7157,
      "intravenously": 7158,
      "connection": 7159,
      "##orbid": 7160,
      "guarded": 7161,
      "liquids": 7162,
      "anchor": 7163,
      "##annenst": 7164,
      "nocturnal": 7165,
      "hopefully": 7166,
      "vitreous": 7167,
      "exchange": 7168,
      "lupus": 7169,
      "pfannenst": 7170,
      "##iphoid": 7171,
      "lortab": 7172,
      "somnol": 7173,
      "pfannenstiel": 7174,
      "darv": 7175,
      "dartos": 7176,
      "eust": 7177,
      "md": 7178,
      "tie": 7179,
      "tars": 7180,
      "##oir": 7181,
      "##ering": 7182,
      "wash": 7183,
      "##icited": 7184,
      "##omatic": 7185,
      "##urface": 7186,
      "##opath": 7187,
      "stick": 7188,
      "##ilt": 7189,
      "debul": 7190,
      "dehyd": 7191,
      "##rip": 7192,
      "##plasia": 7193,
      "spells": 7194,
      "blad": 7195,
      "reserv": 7196,
      "computer": 7197,
      "##andibular": 7198,
      "surgicel": 7199,
      "distant": 7200,
      "transition": 7201,
      "cleft": 7202,
      "##ulla": 7203,
      "lowered": 7204,
      "tendin": 7205,
      "emesis": 7206,
      "##achian": 7207,
      "tex": 7208,
      "advance": 7209,
      "excurs": 7210,
      "calcific": 7211,
      "corrected": 7212,
      "bronchial": 7213,
      "falling": 7214,
      "gentamic": 7215,
      "##marks": 7216,
      "analges": 7217,
      "cauterization": 7218,
      "noncontrast": 7219,
      "addressed": 7220,
      "dissecting": 7221,
      "steel": 7222,
      "annulus": 7223,
      "rhinorrhea": 7224,
      "sequentially": 7225,
      "displacement": 7226,
      "leukocyt": 7227,
      "necrosis": 7228,
      "hemodynamics": 7229,
      "landmarks": 7230,
      "pictures": 7231,
      "interphalangeal": 7232,
      "eustachian": 7233,
      "reservoir": 7234,
      "gentamicin": 7235,
      "cro": 7236,
      "cub": 7237,
      "hunting": 7238,
      "pic": 7239,
      "xx": 7240,
      "##gy": 7241,
      "##vir": 7242,
      "reach": 7243,
      "##llar": 7244,
      "expect": 7245,
      "nebul": 7246,
      "##astatin": 7247,
      "##romycin": 7248,
      "extracted": 7249,
      "recipro": 7250,
      "consol": 7251,
      "discol": 7252,
      "transient": 7253,
      "##ergan": 7254,
      "flomax": 7255,
      "fashioned": 7256,
      "coar": 7257,
      "emphys": 7258,
      "eminence": 7259,
      "sliding": 7260,
      "phase": 7261,
      "ligamentous": 7262,
      "advair": 7263,
      "relax": 7264,
      "consented": 7265,
      "137": 7266,
      "excluded": 7267,
      "valv": 7268,
      "cirrh": 7269,
      "plateau": 7270,
      "psychomotor": 7271,
      "basilar": 7272,
      "stripped": 7273,
      "keflex": 7274,
      "pupil": 7275,
      "segmental": 7276,
      "1996": 7277,
      "lump": 7278,
      "delusions": 7279,
      "hematochez": 7280,
      "undergoing": 7281,
      "safely": 7282,
      "discontinue": 7283,
      "triceps": 7284,
      "syncopal": 7285,
      "mandibular": 7286,
      "phenergan": 7287,
      "ribs": 7288,
      "intrins": 7289,
      "global": 7290,
      "capsulotomy": 7291,
      "reversed": 7292,
      "dictated": 7293,
      "focus": 7294,
      "oncology": 7295,
      "nexium": 7296,
      "hypotension": 7297,
      "piriform": 7298,
      "parallel": 7299,
      "oozing": 7300,
      "stairs": 7301,
      "huntington": 7302,
      "cirrhosis": 7303,
      "hematochezia": 7304,
      "dual": 7305,
      "folic": 7306,
      "gyn": 7307,
      "lma": 7308,
      "nost": 7309,
      "skelet": 7310,
      "tort": 7311,
      "zone": 7312,
      "##surface": 7313,
      "##gement": 7314,
      "##oop": 7315,
      "##yc": 7316,
      "##heim": 7317,
      "##inium": 7318,
      "##itate": 7319,
      "##rox": 7320,
      "##cting": 7321,
      "reverse": 7322,
      "##atile": 7323,
      "exhib": 7324,
      "adverse": 7325,
      "shown": 7326,
      "##ibility": 7327,
      "undersurface": 7328,
      "presently": 7329,
      "##eprazole": 7330,
      "design": 7331,
      "desicc": 7332,
      "##ellig": 7333,
      "downgoing": 7334,
      "colum": 7335,
      "##achment": 7336,
      "limitations": 7337,
      "##oves": 7338,
      "shortly": 7339,
      "gastroscop": 7340,
      "valgus": 7341,
      "radius": 7342,
      "angiographic": 7343,
      "simp": 7344,
      "adenoma": 7345,
      "serous": 7346,
      "pedicles": 7347,
      "##ocet": 7348,
      "hips": 7349,
      "absence": 7350,
      "everything": 7351,
      "1991": 7352,
      "moment": 7353,
      "mci": 7354,
      "affected": 7355,
      "noncompl": 7356,
      "purch": 7357,
      "ambulating": 7358,
      "dissector": 7359,
      "rongeurs": 7360,
      "glenohumeral": 7361,
      "omeprazole": 7362,
      "magnification": 7363,
      "adjusted": 7364,
      "therapist": 7365,
      "ophthalmic": 7366,
      "bacterial": 7367,
      "premature": 7368,
      "zyrt": 7369,
      "cardioversion": 7370,
      "hypokinesis": 7371,
      "amniotic": 7372,
      "##olysis": 7373,
      "arteriosus": 7374,
      "narcotic": 7375,
      "vesicou": 7376,
      "random": 7377,
      "darvocet": 7378,
      "skeleton": 7379,
      "zyrtec": 7380,
      "cipro": 7381,
      "fu": 7382,
      "ge": 7383,
      "mort": 7384,
      "nic": 7385,
      "pater": 7386,
      "pins": 7387,
      "rv": 7388,
      "viol": 7389,
      "##eper": 7390,
      "##event": 7391,
      "##ven": 7392,
      "##patic": 7393,
      "##hepatic": 7394,
      "##enburg": 7395,
      "##asone": 7396,
      "##regn": 7397,
      "##osen": 7398,
      "##omas": 7399,
      "thrill": 7400,
      "stran": 7401,
      "##odar": 7402,
      "##elenburg": 7403,
      "spot": 7404,
      "##oneu": 7405,
      "##ptive": 7406,
      "##ogene": 7407,
      "prett": 7408,
      "extends": 7409,
      "##ives": 7410,
      "recre": 7411,
      "unevent": 7412,
      "overweight": 7413,
      "##rosyn": 7414,
      "motrin": 7415,
      "##oidal": 7416,
      "midas": 7417,
      "parker": 7418,
      "edematous": 7419,
      "acting": 7420,
      "actual": 7421,
      "depend": 7422,
      "expand": 7423,
      "detailed": 7424,
      "##dee": 7425,
      "weekend": 7426,
      "invasive": 7427,
      "hemorrhages": 7428,
      "indicate": 7429,
      "disorders": 7430,
      "sections": 7431,
      "assistant": 7432,
      "rubber": 7433,
      "services": 7434,
      "requesting": 7435,
      "oscill": 7436,
      "intermittently": 7437,
      "compartments": 7438,
      "rapidly": 7439,
      "communication": 7440,
      "minimally": 7441,
      "curvature": 7442,
      "dentition": 7443,
      "sounded": 7444,
      "toxic": 7445,
      "spermatic": 7446,
      "cramping": 7447,
      "enzymes": 7448,
      "comminuted": 7449,
      "parenchyma": 7450,
      "##menorrhea": 7451,
      "subluxation": 7452,
      "chordee": 7453,
      "htn": 7454,
      "repositioned": 7455,
      "contributing": 7456,
      "commands": 7457,
      "tenosynovitis": 7458,
      "trendelenburg": 7459,
      "consolid": 7460,
      "emphysema": 7461,
      "paternal": 7462,
      "pretty": 7463,
      "cine": 7464,
      "gadol": 7465,
      "lor": 7466,
      "lant": 7467,
      "pale": 7468,
      "ties": 7469,
      "tap": 7470,
      "##rd": 7471,
      "##iance": 7472,
      "##tronic": 7473,
      "##ball": 7474,
      "##acaine": 7475,
      "##adryl": 7476,
      "##opress": 7477,
      "##opexy": 7478,
      "##iam": 7479,
      "beach": 7480,
      "atm": 7481,
      "##amycin": 7482,
      "deterior": 7483,
      "disp": 7484,
      "ablation": 7485,
      "medtronic": 7486,
      "undert": 7487,
      "discrete": 7488,
      "agent": 7489,
      "extreme": 7490,
      "cook": 7491,
      "coreg": 7492,
      "occasions": 7493,
      "passive": 7494,
      "lobectomy": 7495,
      "seroqu": 7496,
      "septic": 7497,
      "##oken": 7498,
      "basic": 7499,
      "pulsatile": 7500,
      "newly": 7501,
      "benadryl": 7502,
      "brid": 7503,
      "peptic": 7504,
      "similarly": 7505,
      "formal": 7506,
      "pads": 7507,
      "ulcerations": 7508,
      "purp": 7509,
      "agreement": 7510,
      "##odenoscopy": 7511,
      "grandfather": 7512,
      "irritation": 7513,
      "pitocin": 7514,
      "keratome": 7515,
      "rr1": 7516,
      "pancreatitis": 7517,
      "cardinal": 7518,
      "stabilized": 7519,
      "vestibular": 7520,
      "mesenteric": 7521,
      "retroflexed": 7522,
      "uti": 7523,
      "ecchymosis": 7524,
      "girl": 7525,
      "fenest": 7526,
      "desiccation": 7527,
      "gadolinium": 7528,
      "lantus": 7529,
      "seroquel": 7530,
      "bent": 7531,
      "ere": 7532,
      "edition": 7533,
      "lb": 7534,
      "ldl": 7535,
      "nat": 7536,
      "pills": 7537,
      "t4": 7538,
      "zocor": 7539,
      "##mitted": 7540,
      "##py": 7541,
      "##xia": 7542,
      "##ulating": 7543,
      "##istic": 7544,
      "wear": 7545,
      "ask": 7546,
      "deeper": 7547,
      "nev": 7548,
      "##ococc": 7549,
      "why": 7550,
      "alleg": 7551,
      "##unc": 7552,
      "##outs": 7553,
      "##ichond": 7554,
      "submental": 7555,
      "agitation": 7556,
      "flatt": 7557,
      "collecting": 7558,
      "fluct": 7559,
      "emplo": 7560,
      "ligamentum": 7561,
      "totally": 7562,
      "antibody": 7563,
      "radiographic": 7564,
      "confused": 7565,
      "circulation": 7566,
      "vertex": 7567,
      "checks": 7568,
      "rasp": 7569,
      "mainly": 7570,
      "benz": 7571,
      "performance": 7572,
      "predict": 7573,
      "##azole": 7574,
      "polypoid": 7575,
      "knows": 7576,
      "macular": 7577,
      "dosage": 7578,
      "glenn": 7579,
      "buttocks": 7580,
      "college": 7581,
      "ambien": 7582,
      "bunionectomy": 7583,
      "latency": 7584,
      "a1c": 7585,
      "relieve": 7586,
      "width": 7587,
      "harvest": 7588,
      "fontanel": 7589,
      "becomes": 7590,
      "products": 7591,
      "arrhythmia": 7592,
      "vigorous": 7593,
      "claritin": 7594,
      "acquired": 7595,
      "thrombocytopenia": 7596,
      "intolerance": 7597,
      "adipose": 7598,
      "sleeve": 7599,
      "##ogeneous": 7600,
      "oscillating": 7601,
      "##ococcus": 7602,
      "dyn": 7603,
      "fer": 7604,
      "ground": 7605,
      "tas": 7606,
      "train": 7607,
      "turg": 7608,
      "tamp": 7609,
      "upt": 7610,
      "##ny": 7611,
      "##lottis": 7612,
      "##o2": 7613,
      "##xy": 7614,
      "##algia": 7615,
      "anore": 7616,
      "##terine": 7617,
      "##utions": 7618,
      "production": 7619,
      "##otri": 7620,
      "defer": 7621,
      "##ethylene": 7622,
      "##ocl": 7623,
      "##ifact": 7624,
      "##ortun": 7625,
      "blurred": 7626,
      "##ptal": 7627,
      "prevertebral": 7628,
      "unli": 7629,
      "##ibrill": 7630,
      "##ruption": 7631,
      "acoust": 7632,
      "posts": 7633,
      "abds": 7634,
      "feed": 7635,
      "flag": 7636,
      "positions": 7637,
      "##ospheres": 7638,
      "epithel": 7639,
      "descended": 7640,
      "draping": 7641,
      "visually": 7642,
      "glide": 7643,
      "express": 7644,
      "supply": 7645,
      "135": 7646,
      "polyethylene": 7647,
      "collapse": 7648,
      "##bulbar": 7649,
      "devices": 7650,
      "gradual": 7651,
      "obstructing": 7652,
      "granulation": 7653,
      "supportive": 7654,
      "fistul": 7655,
      "mobilization": 7656,
      "pushed": 7657,
      "establish": 7658,
      "balanced": 7659,
      "opportun": 7660,
      "concentric": 7661,
      "foraminotomies": 7662,
      "eomi": 7663,
      "febrile": 7664,
      "coban": 7665,
      "important": 7666,
      "lexapro": 7667,
      "##roduodenoscopy": 7668,
      "pallor": 7669,
      "prostatectomy": 7670,
      "esophagogastroduodenoscopy": 7671,
      "thrush": 7672,
      "vesicouterine": 7673,
      "atmospheres": 7674,
      "allegra": 7675,
      "turgor": 7676,
      "acoustic": 7677,
      "arous": 7678,
      "dyst": 7679,
      "fed": 7680,
      "gs": 7681,
      "nap": 7682,
      "pol": 7683,
      "ran": 7684,
      "valu": 7685,
      "woke": 7686,
      "xan": 7687,
      "##np": 7688,
      "##bg": 7689,
      "##urated": 7690,
      "##emide": 7691,
      "##old": 7692,
      "##chal": 7693,
      "disor": 7694,
      "perce": 7695,
      "incising": 7696,
      "spat": 7697,
      "shot": 7698,
      "chosen": 7699,
      "preca": 7700,
      "##allic": 7701,
      "##iventricular": 7702,
      "presumed": 7703,
      "##ondyle": 7704,
      "corresp": 7705,
      "106": 7706,
      "##obronchial": 7707,
      "methyl": 7708,
      "metallic": 7709,
      "tends": 7710,
      "calm": 7711,
      "##ovan": 7712,
      "##untary": 7713,
      "131": 7714,
      "hernias": 7715,
      "lids": 7716,
      "tearing": 7717,
      "vaginalis": 7718,
      "infiltrates": 7719,
      "periphery": 7720,
      "maintaining": 7721,
      "intraoperatively": 7722,
      "cartilages": 7723,
      "thoughts": 7724,
      "awakening": 7725,
      "talk": 7726,
      "organs": 7727,
      "nodular": 7728,
      "tapped": 7729,
      "push": 7730,
      "submandibular": 7731,
      "temporarily": 7732,
      "epicondyle": 7733,
      "varicose": 7734,
      "clonus": 7735,
      "anaerobic": 7736,
      "centimeters": 7737,
      "pylorus": 7738,
      "telemetry": 7739,
      "offered": 7740,
      "myringotomy": 7741,
      "auscultated": 7742,
      "guaiac": 7743,
      "values": 7744,
      "correspond": 7745,
      "bss": 7746,
      "jl": 7747,
      "lou": 7748,
      "lose": 7749,
      "oophorectomy": 7750,
      "##cock": 7751,
      "##hn": 7752,
      "##ken": 7753,
      "##zheim": 7754,
      "##by": 7755,
      "##bility": 7756,
      "##ators": 7757,
      "##isplaced": 7758,
      "##ared": 7759,
      "##ulg": 7760,
      "##uses": 7761,
      "deal": 7762,
      "deline": 7763,
      "comorbid": 7764,
      "intellig": 7765,
      "alzheim": 7766,
      "chron": 7767,
      "##ogen": 7768,
      "transurethral": 7769,
      "aponeu": 7770,
      "vals": 7771,
      "defibrill": 7772,
      "arthrotomy": 7773,
      "adenos": 7774,
      "dorsalis": 7775,
      "bronchi": 7776,
      "tonsillitis": 7777,
      "retrobulbar": 7778,
      "resolve": 7779,
      "wheeze": 7780,
      "creation": 7781,
      "1997": 7782,
      "menstrual": 7783,
      "pinned": 7784,
      "prominence": 7785,
      "granul": 7786,
      "anxious": 7787,
      "talking": 7788,
      "##ulsion": 7789,
      "interpreted": 7790,
      "condyl": 7791,
      "exudates": 7792,
      "semi": 7793,
      "seminal": 7794,
      "originally": 7795,
      "supraspinatus": 7796,
      "hyperemic": 7797,
      "urology": 7798,
      "##load": 7799,
      "duplex": 7800,
      "occupational": 7801,
      "threshold": 7802,
      "petechiae": 7803,
      "myoview": 7804,
      "crohn": 7805,
      "tasks": 7806,
      "uptake": 7807,
      "unlike": 7808,
      "alzheimer": 7809,
      "aponeurosis": 7810,
      "3rd": 7811,
      "4s": 7812,
      "ao": 7813,
      "gel": 7814,
      "hop": 7815,
      "horm": 7816,
      "jr": 7817,
      "lt": 7818,
      "punch": 7819,
      "tur": 7820,
      "tell": 7821,
      "xl": 7822,
      "zero": 7823,
      "##ytic": 7824,
      "##vant": 7825,
      "##pr": 7826,
      "##atch": 7827,
      "##enance": 7828,
      "anus": 7829,
      "##arachnoid": 7830,
      "##room": 7831,
      "##anol": 7832,
      "##sthor": 7833,
      "##othed": 7834,
      "##amax": 7835,
      "histology": 7836,
      "bloc": 7837,
      "shoe": 7838,
      "##aken": 7839,
      "##antial": 7840,
      "subarachnoid": 7841,
      "hemi": 7842,
      "hemisc": 7843,
      "##rick": 7844,
      "108": 7845,
      "transthor": 7846,
      "insurance": 7847,
      "outflow": 7848,
      "imped": 7849,
      "impregn": 7850,
      "##rosemide": 7851,
      "meant": 7852,
      "desat": 7853,
      "medically": 7854,
      "##rams": 7855,
      "fluff": 7856,
      "diovan": 7857,
      "fasci": 7858,
      "fibrom": 7859,
      "explanation": 7860,
      "gallst": 7861,
      "elicited": 7862,
      "scissor": 7863,
      "rhm": 7864,
      "drilling": 7865,
      "alternating": 7866,
      "maintenance": 7867,
      "naris": 7868,
      "##otten": 7869,
      "barre": 7870,
      "##orbital": 7871,
      "submuc": 7872,
      "triglycer": 7873,
      "paraph": 7874,
      "cycles": 7875,
      "arrived": 7876,
      "rigidity": 7877,
      "nocturia": 7878,
      "ramus": 7879,
      "infundibul": 7880,
      "anatomical": 7881,
      "interventions": 7882,
      "excursion": 7883,
      "reciproc": 7884,
      "furosemide": 7885,
      "recreational": 7886,
      "undertaken": 7887,
      "hemiscrotum": 7888,
      "transthoracic": 7889,
      "impregnated": 7890,
      "infundibulopelvic": 7891,
      "7th": 7892,
      "bat": 7893,
      "bot": 7894,
      "fc": 7895,
      "gated": 7896,
      "jejun": 7897,
      "olec": 7898,
      "##ioma": 7899,
      "##ners": 7900,
      "##nitus": 7901,
      "##ead": 7902,
      "##lin": 7903,
      "##orial": 7904,
      "##omatous": 7905,
      "react": 7906,
      "##acin": 7907,
      "##idental": 7908,
      "##aderm": 7909,
      "##fts": 7910,
      "##rix": 7911,
      "chance": 7912,
      "pret": 7913,
      "arise": 7914,
      "##rank": 7915,
      "##ranon": 7916,
      "recess": 7917,
      "recogn": 7918,
      "preservative": 7919,
      "##kinson": 7920,
      "undermined": 7921,
      "envir": 7922,
      "103": 7923,
      "flav": 7924,
      "attend": 7925,
      "coverage": 7926,
      "portals": 7927,
      "ems": 7928,
      "emot": 7929,
      "revealing": 7930,
      "lasting": 7931,
      "limiting": 7932,
      "cysts": 7933,
      "dorsally": 7934,
      "else": 7935,
      "ureteropelvic": 7936,
      "appendage": 7937,
      "##orrhagia": 7938,
      "writing": 7939,
      "225": 7940,
      "babcock": 7941,
      "padding": 7942,
      "meso": 7943,
      "driver": 7944,
      "capital": 7945,
      "biopsied": 7946,
      "schiz": 7947,
      "diffusely": 7948,
      "continuously": 7949,
      "endocrin": 7950,
      "thighs": 7951,
      "##azepam": 7952,
      "mammography": 7953,
      "engaged": 7954,
      "dermatologic": 7955,
      "globe": 7956,
      "photophobia": 7957,
      "nails": 7958,
      "strep": 7959,
      "vibration": 7960,
      "tinnitus": 7961,
      "##hexis": 7962,
      "exactly": 7963,
      "erosion": 7964,
      "leaflet": 7965,
      "consumption": 7966,
      "predominantly": 7967,
      "trochanter": 7968,
      "##board": 7969,
      "anteverted": 7970,
      "laxity": 7971,
      "somnolent": 7972,
      "leukocytosis": 7973,
      "olecranon": 7974,
      "environ": 7975,
      "flavum": 7976,
      "2nd": 7977,
      "bus": 7978,
      "bound": 7979,
      "dtr": 7980,
      "gotten": 7981,
      "luc": 7982,
      "##hood": 7983,
      "##born": 7984,
      "##rep": 7985,
      "##rew": 7986,
      "##any": 7987,
      "##osities": 7988,
      "##omal": 7989,
      "##iguration": 7990,
      "##imus": 7991,
      "##ument": 7992,
      "season": 7993,
      "notice": 7994,
      "##iflex": 7995,
      "clip": 7996,
      "##artum": 7997,
      "examine": 7998,
      "hemangi": 7999,
      "pulm": 8000,
      "indust": 8001,
      "hospitalist": 8002,
      "refills": 8003,
      "fibrous": 8004,
      "expans": 8005,
      "consistency": 8006,
      "cutaneous": 8007,
      "dorsiflex": 8008,
      "dilantin": 8009,
      "carotids": 8010,
      "correlation": 8011,
      "pathological": 8012,
      "leng": 8013,
      "pedunc": 8014,
      "hydrated": 8015,
      "deliver": 8016,
      "nightly": 8017,
      "gastroc": 8018,
      "potentially": 8019,
      "excisional": 8020,
      "tenotomy": 8021,
      "nearly": 8022,
      "elbows": 8023,
      "spondylolisthesis": 8024,
      "strongly": 8025,
      "happened": 8026,
      "inhaler": 8027,
      "sulfate": 8028,
      "coagulated": 8029,
      "pillow": 8030,
      "mastisol": 8031,
      "mucoper": 8032,
      "restarted": 8033,
      "belly": 8034,
      "hemisphere": 8035,
      "gums": 8036,
      "divorced": 8037,
      "hammert": 8038,
      "electrocardiogram": 8039,
      "simply": 8040,
      "predicted": 8041,
      "##otripsy": 8042,
      "reciprocating": 8043,
      "dtrs": 8044,
      "expansion": 8045,
      "bother": 8046,
      "fung": 8047,
      "hg": 8048,
      "lin": 8049,
      "lue": 8050,
      "pillar": 8051,
      "ruled": 8052,
      "tram": 8053,
      "torn": 8054,
      "vir": 8055,
      "##eal": 8056,
      "##ave": 8057,
      "##ohy": 8058,
      "##cies": 8059,
      "##ka": 8060,
      "##ju": 8061,
      "##orph": 8062,
      "##isec": 8063,
      "isthm": 8064,
      "##ilic": 8065,
      "dism": 8066,
      "abil": 8067,
      "##endix": 8068,
      "itch": 8069,
      "##ipine": 8070,
      "infused": 8071,
      "##ostatic": 8072,
      "postt": 8073,
      "interest": 8074,
      "##aphy": 8075,
      "dobut": 8076,
      "overse": 8077,
      "agrees": 8078,
      "nonre": 8079,
      "ami": 8080,
      "midface": 8081,
      "teg": 8082,
      "mode": 8083,
      "label": 8084,
      "ostial": 8085,
      "bowels": 8086,
      "reduc": 8087,
      "restor": 8088,
      "likewise": 8089,
      "walls": 8090,
      "typical": 8091,
      "##orrhexis": 8092,
      "##thening": 8093,
      "##ismus": 8094,
      "takeoff": 8095,
      "erythematous": 8096,
      "volts": 8097,
      "sclerosis": 8098,
      "##cardic": 8099,
      "carbon": 8100,
      "intracardiac": 8101,
      "diverticulitis": 8102,
      "nonsignificant": 8103,
      "film": 8104,
      "contracted": 8105,
      "millisec": 8106,
      "counseled": 8107,
      "crystalloids": 8108,
      "measurements": 8109,
      "capsulorrhexis": 8110,
      "stabilization": 8111,
      "toradol": 8112,
      "augmentin": 8113,
      "augmentation": 8114,
      "spermat": 8115,
      "vulsell": 8116,
      "projections": 8117,
      "participate": 8118,
      "acromion": 8119,
      "##appendix": 8120,
      "vascul": 8121,
      "unstable": 8122,
      "university": 8123,
      "torsion": 8124,
      "dehydration": 8125,
      "##roxine": 8126,
      "gastroscope": 8127,
      "purchase": 8128,
      "nevus": 8129,
      "flagyl": 8130,
      "xanax": 8131,
      "adenosine": 8132,
      "unlikely": 8133,
      "mesoappendix": 8134,
      "dobutamine": 8135,
      "millisecond": 8136,
      "vulsellum": 8137,
      "aids": 8138,
      "cx": 8139,
      "friend": 8140,
      "lact": 8141,
      "plex": 8142,
      "rid": 8143,
      "taped": 8144,
      "zol": 8145,
      "zof": 8146,
      "##rates": 8147,
      "##ores": 8148,
      "##pm": 8149,
      "##hial": 8150,
      "##bally": 8151,
      "##athe": 8152,
      "##onitis": 8153,
      "##aries": 8154,
      "##ople": 8155,
      "##imm": 8156,
      "produc": 8157,
      "##otal": 8158,
      "convers": 8159,
      "plaqu": 8160,
      "sees": 8161,
      "##ocon": 8162,
      "whom": 8163,
      "sci": 8164,
      "infr": 8165,
      "##riceps": 8166,
      "endo": 8167,
      "##rachial": 8168,
      "decort": 8169,
      "##ference": 8170,
      "subcu": 8171,
      "pars": 8172,
      "parent": 8173,
      "discussing": 8174,
      "anteb": 8175,
      "hypertensive": 8176,
      "##icularis": 8177,
      "intraabdominal": 8178,
      "ventricles": 8179,
      "awoke": 8180,
      "protamine": 8181,
      "confron": 8182,
      "configuration": 8183,
      "laboratories": 8184,
      "probed": 8185,
      "standpoint": 8186,
      "hydration": 8187,
      "quadriceps": 8188,
      "duod": 8189,
      "verbally": 8190,
      "mainstem": 8191,
      "holder": 8192,
      "suggests": 8193,
      "people": 8194,
      "ductal": 8195,
      "drive": 8196,
      "obviously": 8197,
      "pulling": 8198,
      "contacted": 8199,
      "droop": 8200,
      "dimension": 8201,
      "accordingly": 8202,
      "ventilation": 8203,
      "directions": 8204,
      "suffering": 8205,
      "varicosities": 8206,
      "triangle": 8207,
      "false": 8208,
      "effacement": 8209,
      "vertebra": 8210,
      "valvular": 8211,
      "postsurgical": 8212,
      "glidewire": 8213,
      "opportunity": 8214,
      "meantime": 8215,
      "emotional": 8216,
      "zofran": 8217,
      "antebrachial": 8218,
      "aqu": 8219,
      "aunt": 8220,
      "bmi": 8221,
      "cd": 8222,
      "ica": 8223,
      "mir": 8224,
      "oh": 8225,
      "sort": 8226,
      "tru": 8227,
      "##ror": 8228,
      "##iju": 8229,
      "##sv": 8230,
      "##lusive": 8231,
      "##come": 8232,
      "##phed": 8233,
      "##bor": 8234,
      "##bec": 8235,
      "##60": 8236,
      "##atz": 8237,
      "##asms": 8238,
      "##annel": 8239,
      "rear": 8240,
      "##otons": 8241,
      "##amically": 8242,
      "sewn": 8243,
      "seeds": 8244,
      "suck": 8245,
      "suffic": 8246,
      "##pers": 8247,
      "areolar": 8248,
      "spell": 8249,
      "channel": 8250,
      "prel": 8251,
      "##izes": 8252,
      "##ipaque": 8253,
      "extru": 8254,
      "unless": 8255,
      "##ables": 8256,
      "acl": 8257,
      "##issimus": 8258,
      "interos": 8259,
      "carry": 8260,
      "agitated": 8261,
      "##orses": 8262,
      "flut": 8263,
      "nonweight": 8264,
      "midcl": 8265,
      "clearance": 8266,
      "##ixed": 8267,
      "depo": 8268,
      "slit": 8269,
      "lymphed": 8270,
      "##rophys": 8271,
      "phon": 8272,
      "osteotomies": 8273,
      "sensing": 8274,
      "136": 8275,
      "139": 8276,
      "highly": 8277,
      "adenotons": 8278,
      "resulted": 8279,
      "avascular": 8280,
      "childhood": 8281,
      "transversely": 8282,
      "arteriotomy": 8283,
      "symmetrically": 8284,
      "instead": 8285,
      "splenic": 8286,
      "1999": 8287,
      "nondisplaced": 8288,
      "uncertain": 8289,
      "suspension": 8290,
      "issue": 8291,
      "centered": 8292,
      "cholangiogram": 8293,
      "fundi": 8294,
      "maxilla": 8295,
      "safe": 8296,
      "aligned": 8297,
      "ambulatory": 8298,
      "aggrav": 8299,
      "occlusive": 8300,
      "diaphoresis": 8301,
      "sulcus": 8302,
      "eyelids": 8303,
      "phenom": 8304,
      "##occipital": 8305,
      "latissimus": 8306,
      "keratosis": 8307,
      "towels": 8308,
      "hamstr": 8309,
      "igg": 8310,
      "trapezius": 8311,
      "skeletonized": 8312,
      "jl4": 8313,
      "intelligence": 8314,
      "hammertoe": 8315,
      "##ijuana": 8316,
      "nonweightbearing": 8317,
      "midclavicular": 8318,
      "lymphedema": 8319,
      "4h": 8320,
      "city": 8321,
      "eats": 8322,
      "fria": 8323,
      "ging": 8324,
      "hil": 8325,
      "ka": 8326,
      "tine": 8327,
      "##ilet": 8328,
      "##damycin": 8329,
      "##fast": 8330,
      "##jo": 8331,
      "##atosis": 8332,
      "##ash": 8333,
      "##requ": 8334,
      "##arenal": 8335,
      "toilet": 8336,
      "heter": 8337,
      "wechs": 8338,
      "##olute": 8339,
      "##cephal": 8340,
      "orally": 8341,
      "disruption": 8342,
      "noting": 8343,
      "perior": 8344,
      "##ifying": 8345,
      "extend": 8346,
      "##ensions": 8347,
      "##agul": 8348,
      "corp": 8349,
      "feeds": 8350,
      "nonoperative": 8351,
      "hyperg": 8352,
      "parkinson": 8353,
      "manually": 8354,
      "depressive": 8355,
      "expressive": 8356,
      "clindamycin": 8357,
      "explain": 8358,
      "alcoholic": 8359,
      "numbers": 8360,
      "##atarsal": 8361,
      "absolute": 8362,
      "orders": 8363,
      "240": 8364,
      "newborn": 8365,
      "fibrillations": 8366,
      "servings": 8367,
      "dermal": 8368,
      "dermis": 8369,
      "longitudinally": 8370,
      "diverticulum": 8371,
      "lithotripsy": 8372,
      "reactions": 8373,
      "prophylactic": 8374,
      "confirming": 8375,
      "behavioral": 8376,
      "dilators": 8377,
      "integument": 8378,
      "breakfast": 8379,
      "manipulation": 8380,
      "dictation": 8381,
      "tracking": 8382,
      "mesentery": 8383,
      "zyg": 8384,
      "neurontin": 8385,
      "missed": 8386,
      "deceler": 8387,
      "remnant": 8388,
      "consolidation": 8389,
      "training": 8390,
      "triglycerides": 8391,
      "duodenal": 8392,
      "wechsler": 8393,
      "bath": 8394,
      "bare": 8395,
      "bnp": 8396,
      "dest": 8397,
      "fulg": 8398,
      "gout": 8399,
      "log": 8400,
      "lining": 8401,
      "pick": 8402,
      "sen": 8403,
      "tab": 8404,
      "tues": 8405,
      "wt": 8406,
      "##ratory": 8407,
      "##iologist": 8408,
      "##late": 8409,
      "##cid": 8410,
      "##foot": 8411,
      "##eria": 8412,
      "##inic": 8413,
      "##inter": 8414,
      "##alemia": 8415,
      "##asilar": 8416,
      "##ophy": 8417,
      "ase": 8418,
      "sparing": 8419,
      "shin": 8420,
      "##ogenous": 8421,
      "prevac": 8422,
      "click": 8423,
      "##rand": 8424,
      "##remia": 8425,
      "compress": 8426,
      "transect": 8427,
      "monitors": 8428,
      "visc": 8429,
      "126": 8430,
      "actinic": 8431,
      "opi": 8432,
      "##iques": 8433,
      "pool": 8434,
      "##ophren": 8435,
      "modal": 8436,
      "recover": 8437,
      "aortogram": 8438,
      "mucus": 8439,
      "hypok": 8440,
      "hypopharynx": 8441,
      "fatty": 8442,
      "142": 8443,
      "solu": 8444,
      "book": 8445,
      "thyroidectomy": 8446,
      "symmetry": 8447,
      "situ": 8448,
      "1995": 8449,
      "sixth": 8450,
      "##ondylar": 8451,
      "brace": 8452,
      "trabec": 8453,
      "polypectomy": 8454,
      "##othyroxine": 8455,
      "pushing": 8456,
      "articulation": 8457,
      "levothyroxine": 8458,
      "caudally": 8459,
      "hemodynamically": 8460,
      "productive": 8461,
      "vesicles": 8462,
      "abduction": 8463,
      "abductor": 8464,
      "inhalation": 8465,
      "anchored": 8466,
      "responded": 8467,
      "suddenly": 8468,
      "mechanism": 8469,
      "laryngoscope": 8470,
      "warrant": 8471,
      "hyperemia": 8472,
      "agreeable": 8473,
      "specialist": 8474,
      "arrangement": 8475,
      "epididymis": 8476,
      "securely": 8477,
      "quickly": 8478,
      "tortuous": 8479,
      "##odarone": 8480,
      "natural": 8481,
      "precautions": 8482,
      "jr4": 8483,
      "amiodarone": 8484,
      "mirror": 8485,
      "prelim": 8486,
      "flutter": 8487,
      "tuesday": 8488,
      "prevacid": 8489,
      "hypokalemia": 8490,
      "bite": 8491,
      "costal": 8492,
      "drow": 8493,
      "lle": 8494,
      "ow": 8495,
      "vi": 8496,
      "##aise": 8497,
      "##vc": 8498,
      "##vised": 8499,
      "##zac": 8500,
      "##utive": 8501,
      "prozac": 8502,
      "##ota": 8503,
      "cone": 8504,
      "peria": 8505,
      "intended": 8506,
      "altered": 8507,
      "##ogastric": 8508,
      "hispan": 8509,
      "arg": 8510,
      "cabg": 8511,
      "intern": 8512,
      "##copic": 8513,
      "upset": 8514,
      "##derm": 8515,
      "endarter": 8516,
      "##irect": 8517,
      "aged": 8518,
      "agents": 8519,
      "transposition": 8520,
      "cmp": 8521,
      "sidew": 8522,
      "furthermore": 8523,
      "surgically": 8524,
      "angles": 8525,
      "occurs": 8526,
      "occurring": 8527,
      "fibrotic": 8528,
      "continuation": 8529,
      "##axillary": 8530,
      "elective": 8531,
      "neurologist": 8532,
      "requires": 8533,
      "emergently": 8534,
      "smoked": 8535,
      "facil": 8536,
      "psychosis": 8537,
      "malaise": 8538,
      "struck": 8539,
      "manager": 8540,
      "##illedema": 8541,
      "varus": 8542,
      "variety": 8543,
      "oropharyngeal": 8544,
      "orthostatic": 8545,
      "contacts": 8546,
      "toothache": 8547,
      "orbit": 8548,
      "papilledema": 8549,
      "dimensions": 8550,
      "ampicillin": 8551,
      "ampulla": 8552,
      "ensured": 8553,
      "##ledge": 8554,
      "responsive": 8555,
      "vacc": 8556,
      "substantial": 8557,
      "exsanguinate": 8558,
      "leukemia": 8559,
      "abduct": 8560,
      "funduscopic": 8561,
      "laryngoscopy": 8562,
      "peroneus": 8563,
      "artifact": 8564,
      "accuracy": 8565,
      "abrasions": 8566,
      "pubis": 8567,
      "supplementation": 8568,
      "fissure": 8569,
      "transitional": 8570,
      "comorbidities": 8571,
      "valsal": 8572,
      "dismiss": 8573,
      "confront": 8574,
      "hispanic": 8575,
      "brow": 8576,
      "dut": 8577,
      "fri": 8578,
      "fav": 8579,
      "gale": 8580,
      "lunch": 8581,
      "must": 8582,
      "pnd": 8583,
      "tilt": 8584,
      "##ris": 8585,
      "##iosteal": 8586,
      "##onop": 8587,
      "##enon": 8588,
      "##enced": 8589,
      "ingest": 8590,
      "##arin": 8591,
      "##entin": 8592,
      "##icone": 8593,
      "##uting": 8594,
      "proposed": 8595,
      "##ilon": 8596,
      "##amps": 8597,
      "plas": 8598,
      "##ialis": 8599,
      "usage": 8600,
      "alter": 8601,
      "##plastic": 8602,
      "itching": 8603,
      "##phar": 8604,
      "recording": 8605,
      "##lude": 8606,
      "##ager": 8607,
      "reglan": 8608,
      "##ralazine": 8609,
      "##cyc": 8610,
      "marijuana": 8611,
      "attended": 8612,
      "assumed": 8613,
      "coli": 8614,
      "lived": 8615,
      "1200": 8616,
      "cardiomegaly": 8617,
      "subcostal": 8618,
      "tubing": 8619,
      "blephar": 8620,
      "##iceal": 8621,
      "teasp": 8622,
      "knot": 8623,
      "seek": 8624,
      "##ograms": 8625,
      "prn": 8626,
      "protru": 8627,
      "radiates": 8628,
      "aching": 8629,
      "hydralazine": 8630,
      "blockers": 8631,
      "walks": 8632,
      "##ometry": 8633,
      "mrs": 8634,
      "malformation": 8635,
      "separately": 8636,
      "adhesive": 8637,
      "228": 8638,
      "helping": 8639,
      "creating": 8640,
      "##reases": 8641,
      "vitrectomy": 8642,
      "complexes": 8643,
      "questioning": 8644,
      "borders": 8645,
      "ready": 8646,
      "readily": 8647,
      "staying": 8648,
      "723": 8649,
      "lifted": 8650,
      "epiglottis": 8651,
      "melan": 8652,
      "liter": 8653,
      "tremors": 8654,
      "engage": 8655,
      "postpartum": 8656,
      "conclusions": 8657,
      "hairline": 8658,
      "pursue": 8659,
      "cerebellum": 8660,
      "dentist": 8661,
      "vibratory": 8662,
      "ppd": 8663,
      "toxin": 8664,
      "stretcher": 8665,
      "letter": 8666,
      "parapatellar": 8667,
      "crepitus": 8668,
      "tanner": 8669,
      "chemistry": 8670,
      "intermedius": 8671,
      "fenestration": 8672,
      "fluctu": 8673,
      "tampon": 8674,
      "friends": 8675,
      "der": 8676,
      "fn": 8677,
      "houst": 8678,
      "lfts": 8679,
      "t7": 8680,
      "tent": 8681,
      "##ipl": 8682,
      "##oft": 8683,
      "##yroid": 8684,
      "##prick": 8685,
      "##where": 8686,
      "##orable": 8687,
      "##itable": 8688,
      "##oming": 8689,
      "reop": 8690,
      "##oure": 8691,
      "isov": 8692,
      "##olol": 8693,
      "##ameth": 8694,
      "##uminal": 8695,
      "##ector": 8696,
      "##ets": 8697,
      "spasms": 8698,
      "arising": 8699,
      "una": 8700,
      "contral": 8701,
      "subchondral": 8702,
      "##ensation": 8703,
      "presum": 8704,
      "examining": 8705,
      "transvers": 8706,
      "##race": 8707,
      "indirect": 8708,
      "hypervent": 8709,
      "121": 8710,
      "manage": 8711,
      "lasted": 8712,
      "fibular": 8713,
      "detachment": 8714,
      "134": 8715,
      "radiologist": 8716,
      "calcar": 8717,
      "electrode": 8718,
      "invest": 8719,
      "board": 8720,
      "inflamed": 8721,
      "serious": 8722,
      "micros": 8723,
      "speaking": 8724,
      "apparatus": 8725,
      "absor": 8726,
      "episodic": 8727,
      "constrict": 8728,
      "oxycodone": 8729,
      "perfused": 8730,
      "stapled": 8731,
      "leading": 8732,
      "1994": 8733,
      "volt": 8734,
      "uncont": 8735,
      "uncompl": 8736,
      "pinprick": 8737,
      "endocatch": 8738,
      "knowledge": 8739,
      "combined": 8740,
      "mobilize": 8741,
      "comfortably": 8742,
      "brachi": 8743,
      "dizzy": 8744,
      "irritability": 8745,
      "button": 8746,
      "diaphragmatic": 8747,
      "paper": 8748,
      "gravity": 8749,
      "adjustments": 8750,
      "resectoscope": 8751,
      "urgent": 8752,
      "restriction": 8753,
      "pillars": 8754,
      "unsure": 8755,
      "paranoid": 8756,
      "watchful": 8757,
      "tiredness": 8758,
      "epilepsy": 8759,
      "bottle": 8760,
      "ranges": 8761,
      "psor": 8762,
      "neurosurgery": 8763,
      "switched": 8764,
      "lethargic": 8765,
      "prompt": 8766,
      "inhibitor": 8767,
      "uneventful": 8768,
      "purpose": 8769,
      "##ichondrial": 8770,
      "fontanelle": 8771,
      "naprosyn": 8772,
      "industrial": 8773,
      "isthmus": 8774,
      "milliseconds": 8775,
      "zoloft": 8776,
      "hilum": 8777,
      "fnf": 8778,
      "houston": 8779,
      "isovue": 8780,
      "##amethasone": 8781,
      "contralateral": 8782,
      "hyperventil": 8783,
      "uncomplicated": 8784,
      "aro": 8785,
      "bum": 8786,
      "gm": 8787,
      "gab": 8788,
      "hes": 8789,
      "lie": 8790,
      "lbs": 8791,
      "nu": 8792,
      "olig": 8793,
      "pure": 8794,
      "##rad": 8795,
      "##nasal": 8796,
      "##ta": 8797,
      "##aph": 8798,
      "##junctiv": 8799,
      "##xic": 8800,
      "##alk": 8801,
      "##algus": 8802,
      "##arcer": 8803,
      "##arietal": 8804,
      "##rost": 8805,
      "##ingu": 8806,
      "ream": 8807,
      "##oun": 8808,
      "##ads": 8809,
      "##opectoral": 8810,
      "##imosis": 8811,
      "beam": 8812,
      "conse": 8813,
      "##olin": 8814,
      "##ifocal": 8815,
      "adduction": 8816,
      "incarcer": 8817,
      "chain": 8818,
      "##seal": 8819,
      "##ivor": 8820,
      "##apentin": 8821,
      "discl": 8822,
      "107": 8823,
      "retrie": 8824,
      "##oscopically": 8825,
      "diseases": 8826,
      "visiting": 8827,
      "approximation": 8828,
      "##raines": 8829,
      "collected": 8830,
      "completing": 8831,
      "locations": 8832,
      "poll": 8833,
      "firing": 8834,
      "occip": 8835,
      "ult": 8836,
      "palpate": 8837,
      "##ovalgus": 8838,
      "relates": 8839,
      "electrophys": 8840,
      "dyslipidemia": 8841,
      "princ": 8842,
      "conflu": 8843,
      "smoothed": 8844,
      "boot": 8845,
      "##iatry": 8846,
      "sacrum": 8847,
      "##hened": 8848,
      "elastic": 8849,
      "ureters": 8850,
      "liposu": 8851,
      "eryth": 8852,
      "resolving": 8853,
      "celeb": 8854,
      "##gued": 8855,
      "mcivor": 8856,
      "crus": 8857,
      "##omfortable": 8858,
      "uncomfortable": 8859,
      "curettes": 8860,
      "fatigued": 8861,
      "cataracts": 8862,
      "nodosum": 8863,
      "diverticula": 8864,
      "lithium": 8865,
      "macro": 8866,
      "vasectomy": 8867,
      "chlorhex": 8868,
      "steal": 8869,
      "migraines": 8870,
      "postprand": 8871,
      "deltopectoral": 8872,
      "markings": 8873,
      "turning": 8874,
      "enzyme": 8875,
      "tacked": 8876,
      "kyphosis": 8877,
      "impedance": 8878,
      "battery": 8879,
      "schizophren": 8880,
      "preliminary": 8881,
      "endarterectomy": 8882,
      "valsalva": 8883,
      "galea": 8884,
      "melanoma": 8885,
      "gabapentin": 8886,
      "liposuction": 8887,
      "celebrex": 8888,
      "chlorhexidine": 8889,
      "postprandial": 8890,
      "schizophrenia": 8891,
      "dx": 8892,
      "fru": 8893,
      "gun": 8894,
      "hc": 8895,
      "kit": 8896,
      "pax": 8897,
      "rle": 8898,
      "sad": 8899,
      "tand": 8900,
      "wit": 8901,
[...]
